{
  "version": "1.0",
  "truncation": null,
  "padding": null,
  "added_tokens": [
    {
      "id": 0,
      "content": "[PAD]",
      "single_word": false,
      "lstrip": false,
      "rstrip": false,
      "normalized": false,
      "special": true
    },
    {
      "id": 1,
      "content": "[UNK]",
      "single_word": false,
      "lstrip": false,
      "rstrip": false,
      "normalized": false,
      "special": true
    },
    {
      "id": 2,
      "content": "[SOS]",
      "single_word": false,
      "lstrip": false,
      "rstrip": false,
      "normalized": false,
      "special": true
    },
    {
      "id": 3,
      "content": "[EOS]",
      "single_word": false,
      "lstrip": false,
      "rstrip": false,
      "normalized": false,
      "special": true
    }
  ],
  "normalizer": {
    "type": "BertNormalizer",
    "clean_text": true,
    "handle_chinese_chars": true,
    "strip_accents": true,
    "lowercase": true
  },
  "pre_tokenizer": {
    "type": "BertPreTokenizer"
  },
  "post_processor": null,
  "decoder": {
    "type": "WordPiece",
    "prefix": "##",
    "cleanup": true
  },
  "model": {
    "type": "WordPiece",
    "unk_token": "[UNK]",
    "continuing_subword_prefix": "##",
    "max_input_chars_per_word": 100,
    "vocab": {
      "[PAD]": 0,
      "[UNK]": 1,
      "[SOS]": 2,
      "[EOS]": 3,
      "!": 4,
      "#": 5,
      "$": 6,
      "%": 7,
      "'": 8,
      "(": 9,
      ")": 10,
      "*": 11,
      "+": 12,
      ",": 13,
      "-": 14,
      ".": 15,
      "/": 16,
      "0": 17,
      "1": 18,
      "2": 19,
      "3": 20,
      "4": 21,
      "5": 22,
      "6": 23,
      "7": 24,
      "8": 25,
      "9": 26,
      ":": 27,
      ";": 28,
      "<": 29,
      "=": 30,
      ">": 31,
      "?": 32,
      "[": 33,
      "\\": 34,
      "]": 35,
      "^": 36,
      "_": 37,
      "a": 38,
      "b": 39,
      "c": 40,
      "d": 41,
      "e": 42,
      "f": 43,
      "g": 44,
      "h": 45,
      "i": 46,
      "j": 47,
      "k": 48,
      "l": 49,
      "m": 50,
      "n": 51,
      "o": 52,
      "p": 53,
      "q": 54,
      "r": 55,
      "s": 56,
      "t": 57,
      "u": 58,
      "v": 59,
      "w": 60,
      "x": 61,
      "y": 62,
      "z": 63,
      "{": 64,
      "|": 65,
      "}": 66,
      "~": 67,
      "##y": 68,
      "##b": 69,
      "##8": 70,
      "##3": 71,
      "##e": 72,
      "##x": 73,
      "##o": 74,
      "##m": 75,
      "##i": 76,
      "##1": 77,
      "##5": 78,
      "##2": 79,
      "##9": 80,
      "##6": 81,
      "##7": 82,
      "##4": 83,
      "##s": 84,
      "##d": 85,
      "##p": 86,
      "##a": 87,
      "##t": 88,
      "##l": 89,
      "##c": 90,
      "##h": 91,
      "##r": 92,
      "##n": 93,
      "##f": 94,
      "##0": 95,
      "##u": 96,
      "##k": 97,
      "##g": 98,
      "##z": 99,
      "##v": 100,
      "##q": 101,
      "##w": 102,
      "##j": 103,
      "##on": 104,
      "##in": 105,
      "th": 106,
      "##te": 107,
      "##ti": 108,
      "the": 109,
      "##ro": 110,
      "in": 111,
      "##se": 112,
      "##la": 113,
      "##mi": 114,
      "##tion": 115,
      "##ly": 116,
      "##ra": 117,
      "##it": 118,
      "##om": 119,
      "##or": 120,
      "to": 121,
      "##es": 122,
      "of": 123,
      "##en": 124,
      "##el": 125,
      "##os": 126,
      "##ase": 127,
      "##al": 128,
      "##er": 129,
      "an": 130,
      "##ter": 131,
      "##na": 132,
      "##ity": 133,
      "si": 134,
      "##un": 135,
      "##le": 136,
      "##lar": 137,
      "##ami": 138,
      "##at": 139,
      "##amily": 140,
      "##ction": 141,
      "pro": 142,
      "##ing": 143,
      "and": 144,
      "re": 145,
      "##ran": 146,
      "simi": 147,
      "similar": 148,
      "similarity": 149,
      "##th": 150,
      "##pro": 151,
      "inter": 152,
      "##ong": 153,
      "##ed": 154,
      "interpro": 155,
      "##ib": 156,
      "##unction": 157,
      "bel": 158,
      "belong": 159,
      "function": 160,
      "family": 161,
      "belongs": 162,
      "li": 163,
      "su": 164,
      "##ate": 165,
      "##ic": 166,
      "##is": 167,
      "ac": 168,
      "##rans": 169,
      "##ph": 170,
      "##ar": 171,
      "##ac": 172,
      "sf": 173,
      "##ol": 174,
      "##ke": 175,
      "##yl": 176,
      "##id": 177,
      "dom": 178,
      "like": 179,
      "##ent": 180,
      "rib": 181,
      "trans": 182,
      "##ation": 183,
      "##re": 184,
      "##an": 185,
      "##ep": 186,
      "##uc": 187,
      "##osom": 188,
      "for": 189,
      "##et": 190,
      "##tp": 191,
      "tr": 192,
      "prote": 193,
      "as": 194,
      "ribosom": 195,
      "##yn": 196,
      "sub": 197,
      "##ynth": 198,
      "protein": 199,
      "by": 200,
      "##ine": 201,
      "ph": 202,
      "ribosomal": 203,
      "is": 204,
      "##tiv": 205,
      "##osph": 206,
      "##oc": 207,
      "##yd": 208,
      "##pe": 209,
      "synth": 210,
      "##ir": 211,
      "##am": 212,
      "com": 213,
      "ch": 214,
      "dna": 215,
      "de": 216,
      "##ur": 217,
      "me": 218,
      "trna": 219,
      "cat": 220,
      "comp": 221,
      "##era": 222,
      "en": 223,
      "##ad": 224,
      "con": 225,
      "al": 226,
      "##ts": 227,
      "cy": 228,
      "atp": 229,
      "##ain": 230,
      "##ydro": 231,
      "##ri": 232,
      "##tor": 233,
      "cata": 234,
      "##tid": 235,
      "##ell": 236,
      "phosph": 237,
      "cataly": 238,
      "##rom": 239,
      "##qu": 240,
      "##to": 241,
      "bd": 242,
      "##ind": 243,
      "##ith": 244,
      "##zes": 245,
      "di": 246,
      "##yla": 247,
      "##tic": 248,
      "##us": 249,
      "##mb": 250,
      "bind": 251,
      "activ": 252,
      "form": 253,
      "##ion": 254,
      "st": 255,
      "cs": 256,
      "co": 257,
      "##ys": 258,
      "with": 259,
      "ty": 260,
      "cell": 261,
      "##ula": 262,
      "that": 263,
      "catalyzes": 264,
      "##ap": 265,
      "##family": 266,
      "gl": 267,
      "comple": 268,
      "##ox": 269,
      "complex": 270,
      "##min": 271,
      "##mp": 272,
      "##as": 273,
      "##ct": 274,
      "##ved": 275,
      "wh": 276,
      "##ch": 277,
      "##ut": 278,
      "##erase": 279,
      "##ul": 280,
      "reg": 281,
      "##ab": 282,
      "##tes": 283,
      "##op": 284,
      "hydro": 285,
      "rna": 286,
      "##ole": 287,
      "##me": 288,
      "##ucle": 289,
      "inv": 290,
      "res": 291,
      "##ot": 292,
      "pla": 293,
      "dep": 294,
      "##ver": 295,
      "invol": 296,
      "##od": 297,
      "##if": 298,
      "ad": 299,
      "##gen": 300,
      "rec": 301,
      "se": 302,
      "##inase": 303,
      "involved": 304,
      "ex": 305,
      "##ay": 306,
      "##lyc": 307,
      "##ge": 308,
      "##unit": 309,
      "##ess": 310,
      "from": 311,
      "subunit": 312,
      "##duc": 313,
      "##st": 314,
      "bac": 315,
      "##rna": 316,
      "##end": 317,
      "##esis": 318,
      "at": 319,
      "regula": 320,
      "type": 321,
      "or": 322,
      "meth": 323,
      "ox": 324,
      "##eptid": 325,
      "##tase": 326,
      "pre": 327,
      "##il": 328,
      "##endent": 329,
      "on": 330,
      "##ub": 331,
      "subfamily": 332,
      "##fer": 333,
      "it": 334,
      "##iate": 335,
      "##lase": 336,
      "##ich": 337,
      "##ce": 338,
      "us": 339,
      "ii": 340,
      "ul": 341,
      "po": 342,
      "##por": 343,
      "rep": 344,
      "kinase": 345,
      "nucle": 346,
      "bet": 347,
      "##las": 348,
      "##ted": 349,
      "##per": 350,
      "dependent": 351,
      "##mbran": 352,
      "role": 353,
      "##ment": 354,
      "##ferase": 355,
      "glyc": 356,
      "fac": 357,
      "proteins": 358,
      "##one": 359,
      "##ig": 360,
      "##tpase": 361,
      "##ral": 362,
      "which": 363,
      "bi": 364,
      "##ia": 365,
      "nad": 366,
      "binding": 367,
      "##yr": 368,
      "##up": 369,
      "##mbrane": 370,
      "car": 371,
      "cyt": 372,
      "##pec": 373,
      "le": 374,
      "un": 375,
      "ne": 376,
      "requ": 377,
      "peptid": 378,
      "may": 379,
      "##ediate": 380,
      "##tive": 381,
      "##um": 382,
      "gro": 383,
      "##vers": 384,
      "##old": 385,
      "ef": 386,
      "phosphate": 387,
      "##ose": 388,
      "requir": 389,
      "##och": 390,
      "cont": 391,
      "gen": 392,
      "met": 393,
      "lig": 394,
      "activity": 395,
      "##fase": 396,
      "##ransferase": 397,
      "##ition": 398,
      "##lo": 399,
      "binds": 400,
      "##sen": 401,
      "he": 402,
      "##mo": 403,
      "##ific": 404,
      "##iz": 405,
      "amin": 406,
      "end": 407,
      "resp": 408,
      "required": 409,
      "##ylt": 410,
      "poly": 411,
      "membrane": 412,
      "##ons": 413,
      "##ip": 414,
      "transc": 415,
      "##phosph": 416,
      "acid": 417,
      "dh": 418,
      "##pha": 419,
      "##og": 420,
      "be": 421,
      "##hydro": 422,
      "bl": 423,
      "spec": 424,
      "beta": 425,
      "##ress": 426,
      "##rip": 427,
      "par": 428,
      "chain": 429,
      "ar": 430,
      "##ting": 431,
      "##so": 432,
      "atpase": 433,
      "sh": 434,
      "transcrip": 435,
      "##ann": 436,
      "pos": 437,
      "transpor": 438,
      "lo": 439,
      "also": 440,
      "##su": 441,
      "##rad": 442,
      "prot": 443,
      "##im": 444,
      "##eptor": 445,
      "##av": 446,
      "##ps": 447,
      "ab": 448,
      "##ath": 449,
      "into": 450,
      "ter": 451,
      "rrna": 452,
      "##ond": 453,
      "fold": 454,
      "formation": 455,
      "##ylation": 456,
      "ub": 457,
      "##ide": 458,
      "transcription": 459,
      "synthase": 460,
      "mo": 461,
      "inte": 462,
      "specific": 463,
      "##ial": 464,
      "his": 465,
      "##lic": 466,
      "transfer": 467,
      "##ug": 468,
      "this": 469,
      "##zy": 470,
      "##de": 471,
      "##ular": 472,
      "##0s": 473,
      "##ore": 474,
      "##ma": 475,
      "plays": 476,
      "its": 477,
      "transl": 478,
      "##ated": 479,
      "clas": 480,
      "carb": 481,
      "super": 482,
      "sig": 483,
      "class": 484,
      "##pt": 485,
      "ser": 486,
      "ele": 487,
      "##yltransferase": 488,
      "factor": 489,
      "##osynth": 490,
      "mediate": 491,
      "##lation": 492,
      "cyc": 493,
      "##nal": 494,
      "##ther": 495,
      "##tial": 496,
      "amino": 497,
      "are": 498,
      "alpha": 499,
      "##ome": 500,
      "domain": 501,
      "oxid": 502,
      "##mal": 503,
      "##rol": 504,
      "biosynth": 505,
      "superfamily": 506,
      "##ates": 507,
      "##ration": 508,
      "##sis": 509,
      "aa": 510,
      "ste": 511,
      "##ag": 512,
      "##onent": 513,
      "component": 514,
      "es": 515,
      "##air": 516,
      "sec": 517,
      "##uring": 518,
      "##po": 519,
      "during": 520,
      "gtp": 521,
      "ligase": 522,
      "pr": 523,
      "##uv": 524,
      "##semb": 525,
      "imp": 526,
      "##ogen": 527,
      "##rac": 528,
      "cl": 529,
      "bo": 530,
      "ps": 531,
      "hel": 532,
      "termin": 533,
      "loop": 534,
      "##ism": 535,
      "##hib": 536,
      "el": 537,
      "##rate": 538,
      "##ort": 539,
      "##pp": 540,
      "path": 541,
      "##mm": 542,
      "enzy": 543,
      "pyr": 544,
      "##und": 545,
      "##bab": 546,
      "translation": 547,
      "##otid": 548,
      "##ses": 549,
      "phosphor": 550,
      "assemb": 551,
      "##ary": 552,
      "elect": 553,
      "aden": 554,
      "##iqu": 555,
      "##action": 556,
      "##age": 557,
      "##ugh": 558,
      "##ost": 559,
      "reaction": 560,
      "ntpase": 561,
      "receptor": 562,
      "##mic": 563,
      "##ron": 564,
      "##cess": 565,
      "probab": 566,
      "via": 567,
      "##fe": 568,
      "acet": 569,
      "##ally": 570,
      "##ant": 571,
      "ul1": 572,
      "signal": 573,
      "mit": 574,
      "##iti": 575,
      "methyl": 576,
      "rn": 577,
      "deg": 578,
      "acts": 579,
      "asp": 580,
      "biosynthesis": 581,
      "pathw": 582,
      "hydrox": 583,
      "ribosome": 584,
      "glut": 585,
      "##yste": 586,
      "inhib": 587,
      "pol": 588,
      "group": 589,
      "##ele": 590,
      "up": 591,
      "part": 592,
      "##rfase": 593,
      "bacter": 594,
      "synthesis": 595,
      "##hyd": 596,
      "##ros": 597,
      "subst": 598,
      "##ob": 599,
      "degrad": 600,
      "produc": 601,
      "assembly": 602,
      "##mid": 603,
      "##orm": 604,
      "##ud": 605,
      "##phosphate": 606,
      "reduc": 607,
      "sp": 608,
      "##ization": 609,
      "vi": 610,
      "inc": 611,
      "##rough": 612,
      "us1": 613,
      "acc": 614,
      "cle": 615,
      "##ochrom": 616,
      "ap": 617,
      "through": 618,
      "peptidase": 619,
      "##tu": 620,
      "##dp": 621,
      "ma": 622,
      "##ruc": 623,
      "dis": 624,
      "cytochrom": 625,
      "##soc": 626,
      "##tin": 627,
      "ubiqu": 628,
      "##io": 629,
      "cells": 630,
      "##onucle": 631,
      "coa": 632,
      "tw": 633,
      "bs": 634,
      "##late": 635,
      "##vel": 636,
      "hydroly": 637,
      "core": 638,
      "promo": 639,
      "cytochrome": 640,
      "##oxy": 641,
      "##lf": 642,
      "gtpase": 643,
      "##ystem": 644,
      "##ible": 645,
      "transloc": 646,
      "mrna": 647,
      "##tory": 648,
      "##sp": 649,
      "##cc": 650,
      "zn": 651,
      "##ii": 652,
      "##ium": 653,
      "##med": 654,
      "per": 655,
      "import": 656,
      "##du": 657,
      "glutam": 658,
      "enzyme": 659,
      "##acyl": 660,
      "polym": 661,
      "##versal": 662,
      "mat": 663,
      "two": 664,
      "repair": 665,
      "##itin": 666,
      "##genase": 667,
      "proton": 668,
      "lys": 669,
      "nucleotid": 670,
      "mon": 671,
      "site": 672,
      "helic": 673,
      "##ient": 674,
      "##sential": 675,
      "one": 676,
      "essential": 677,
      "pathway": 678,
      "##ative": 679,
      "##fac": 680,
      "##prote": 681,
      "##xin": 682,
      "##ten": 683,
      "not": 684,
      "uni": 685,
      "##duction": 686,
      "##iv": 687,
      "assoc": 688,
      "ruv": 689,
      "universal": 690,
      "trfase": 691,
      "respon": 692,
      "##ach": 693,
      "step": 694,
      "cleav": 695,
      "hydrolase": 696,
      "has": 697,
      "terminal": 698,
      "##annel": 699,
      "channel": 700,
      "##rect": 701,
      "do": 702,
      "inhibit": 703,
      "##ression": 704,
      "transporter": 705,
      "##ator": 706,
      "pp": 707,
      "mod": 708,
      "anti": 709,
      "ald": 710,
      "intera": 711,
      "sulf": 712,
      "position": 713,
      "degradation": 714,
      "pub": 715,
      "bacterial": 716,
      "transport": 717,
      "pubmed": 718,
      "can": 719,
      "##dtase": 720,
      "smal": 721,
      "small": 722,
      "##ochond": 723,
      "vir": 724,
      "##ochondri": 725,
      "##ating": 726,
      "ala": 727,
      "rele": 728,
      "##olase": 729,
      "##low": 730,
      "initi": 731,
      "##eral": 732,
      "mitochondri": 733,
      "replic": 734,
      "##led": 735,
      "lin": 736,
      "##arg": 737,
      "rnase": 738,
      "cap": 739,
      "##protein": 740,
      "system": 741,
      "elong": 742,
      "regulation": 743,
      "probably": 744,
      "process": 745,
      "exp": 746,
      "host": 747,
      "cent": 748,
      "##etase": 749,
      "cyto": 750,
      "##co": 751,
      "sam": 752,
      "viral": 753,
      "##ry": 754,
      "synthetase": 755,
      "acyl": 756,
      "ag": 757,
      "##rand": 758,
      "##ser": 759,
      "##igh": 760,
      "polymerase": 761,
      "16": 762,
      "##ylase": 763,
      "lip": 764,
      "ob": 765,
      "pri": 766,
      "response": 767,
      "##ens": 768,
      "ul2": 769,
      "##sm": 770,
      "##form": 771,
      "typ": 772,
      "##rid": 773,
      "strand": 774,
      "##gy": 775,
      "##em": 776,
      "##ical": 777,
      "mediates": 778,
      "release": 779,
      "int": 780,
      "contain": 781,
      "##ves": 782,
      "qu": 783,
      "induc": 784,
      "replication": 785,
      "af": 786,
      "hydroxy": 787,
      "abc": 788,
      "link": 789,
      "##les": 790,
      "##meth": 791,
      "subunits": 792,
      "activation": 793,
      "##rase": 794,
      "##chan": 795,
      "##olec": 796,
      "gluc": 797,
      "rp": 798,
      "##ylate": 799,
      "dehydro": 800,
      "both": 801,
      "acetyl": 802,
      "important": 803,
      "##ous": 804,
      "forms": 805,
      "glu": 806,
      "##uk": 807,
      "tc": 808,
      "glycos": 809,
      "##we": 810,
      "lead": 811,
      "signaling": 812,
      "##ere": 813,
      "znf": 814,
      "##ence": 815,
      "mitochondrial": 816,
      "##red": 817,
      "##gl": 818,
      "##ers": 819,
      "helicase": 820,
      "tra": 821,
      "30s": 822,
      "na": 823,
      "fe": 824,
      "if": 825,
      "##version": 826,
      "translocation": 827,
      "##dx": 828,
      "coup": 829,
      "chap": 830,
      "##ogenesis": 831,
      "upf": 832,
      "central": 833,
      "ig": 834,
      "sc": 835,
      "molec": 836,
      "##ock": 837,
      "stab": 838,
      "upf0": 839,
      "isom": 840,
      "functions": 841,
      "such": 842,
      "##fic": 843,
      "cys": 844,
      "##atase": 845,
      "struc": 846,
      "specifically": 847,
      "nucleotide": 848,
      "electron": 849,
      "##rot": 850,
      "##ocy": 851,
      "16s": 852,
      "imm": 853,
      "play": 854,
      "chaper": 855,
      "hydrolysis": 856,
      "arg": 857,
      "then": 858,
      "amp": 859,
      "regulates": 860,
      "##12": 861,
      "23": 862,
      "##arb": 863,
      "methyltransferase": 864,
      "py": 865,
      "##lp": 866,
      "##urs": 867,
      "glyco": 868,
      "ubiquitin": 869,
      "ind": 870,
      "trnas": 871,
      "##cr": 872,
      "hist": 873,
      "##ween": 874,
      "between": 875,
      "stal": 876,
      "##bp": 877,
      "presen": 878,
      "prim": 879,
      "interaction": 880,
      "but": 881,
      "##ross": 882,
      "nadh": 883,
      "##pr": 884,
      "peptide": 885,
      "##pl": 886,
      "##20": 887,
      "syn": 888,
      "att": 889,
      "##amine": 890,
      "##tim": 891,
      "##lasmic": 892,
      "##ies": 893,
      "pur": 894,
      "partic": 895,
      "##ylated": 896,
      "pep": 897,
      "fam": 898,
      "ring": 899,
      "##50": 900,
      "##our": 901,
      "gene": 902,
      "cal": 903,
      "dif": 904,
      "plas": 905,
      "there": 906,
      "substrate": 907,
      "metal": 908,
      "##rectly": 909,
      "##vent": 910,
      "chrom": 911,
      "dihydro": 912,
      "other": 913,
      "##erate": 914,
      "bsu": 915,
      "aminoacyl": 916,
      "ca": 917,
      "gln": 918,
      "##inate": 919,
      "iii": 920,
      "thus": 921,
      "matu": 922,
      "euk": 923,
      "##rates": 924,
      "er": 925,
      "rh": 926,
      "##bin": 927,
      "mono": 928,
      "##ces": 929,
      "bound": 930,
      "phospho": 931,
      "fad": 932,
      "##osome": 933,
      "dec": 934,
      "##uan": 935,
      "subse": 936,
      "##arget": 937,
      "target": 938,
      "bl3": 939,
      "antic": 940,
      "conversion": 941,
      "non": 942,
      "##ve": 943,
      "where": 944,
      "##gan": 945,
      "##arge": 946,
      "dehydrogenase": 947,
      "respons": 948,
      "ly": 949,
      "expression": 950,
      "sequ": 951,
      "control": 952,
      "phosphorylation": 953,
      "##ling": 954,
      "across": 955,
      "##osis": 956,
      "maj": 957,
      "mediated": 958,
      "##wn": 959,
      "##oyl": 960,
      "major": 961,
      "aldolase": 962,
      "associate": 963,
      "lipid": 964,
      "##lu": 965,
      "##dition": 966,
      "genes": 967,
      "23s": 968,
      "mur": 969,
      "thr": 970,
      "lac": 971,
      "##rin": 972,
      "##gether": 973,
      "together": 974,
      "cd": 975,
      "structu": 976,
      "main": 977,
      "##ulin": 978,
      "ener": 979,
      "cen": 980,
      "reductase": 981,
      "##ellular": 982,
      "fir": 983,
      "sur": 984,
      "##nac": 985,
      "differ": 986,
      "##and": 987,
      "##ak": 988,
      "##ty": 989,
      "containing": 990,
      "fla": 991,
      "##ae": 992,
      "##ylates": 993,
      "prec": 994,
      "loc": 995,
      "conver": 996,
      "catalytic": 997,
      "##ene": 998,
      "mic": 999,
      "acids": 1000,
      "pe": 1001,
      "##izes": 1002,
      "grow": 1003,
      "##osine": 1004,
      "ep": 1005,
      "##eld": 1006,
      "##rons": 1007,
      "##res": 1008,
      "##velop": 1009,
      "tim": 1010,
      "yi": 1011,
      "attach": 1012,
      "grad": 1013,
      "##by": 1014,
      "du": 1015,
      "responsible": 1016,
      "aaa": 1017,
      "stabil": 1018,
      "integ": 1019,
      "energy": 1020,
      "##ored": 1021,
      "first": 1022,
      "gradient": 1023,
      "promotes": 1024,
      "##nt": 1025,
      "##quent": 1026,
      "##rib": 1027,
      "yield": 1028,
      "develop": 1029,
      "act": 1030,
      "##oid": 1031,
      "metab": 1032,
      "##ru": 1033,
      "##racellular": 1034,
      "##gf": 1035,
      "recog": 1036,
      "##oxin": 1037,
      "##art": 1038,
      "##bd": 1039,
      "pyrdx": 1040,
      "##40": 1041,
      "resid": 1042,
      "##sid": 1043,
      "pyrdxlp": 1044,
      "high": 1045,
      "transcriptional": 1046,
      "mn": 1047,
      "sulfur": 1048,
      "##mn": 1049,
      "thereby": 1050,
      "##inone": 1051,
      "##ges": 1052,
      "tm": 1053,
      "initiation": 1054,
      "regulator": 1055,
      "##rease": 1056,
      "uv": 1057,
      "cytop": 1058,
      "glutamate": 1059,
      "##val": 1060,
      "##dh": 1061,
      "stim": 1062,
      "##pyr": 1063,
      "##onuclease": 1064,
      "##mer": 1065,
      "iso": 1066,
      "##ca": 1067,
      "subsequent": 1068,
      "anticod": 1069,
      "##rdtase": 1070,
      "lipo": 1071,
      "tri": 1072,
      "##pa": 1073,
      "##rs": 1074,
      "##yc": 1075,
      "interm": 1076,
      "##til": 1077,
      "histone": 1078,
      "leading": 1079,
      "stress": 1080,
      "electrons": 1081,
      "##osyl": 1082,
      "repe": 1083,
      "succ": 1084,
      "active": 1085,
      "metabol": 1086,
      "##10": 1087,
      "mann": 1088,
      "intermediate": 1089,
      "##ules": 1090,
      "development": 1091,
      "residu": 1092,
      "hom": 1093,
      "bar": 1094,
      "##ey": 1095,
      "oxrdtase": 1096,
      "fer": 1097,
      "##vir": 1098,
      "##itro": 1099,
      "mul": 1100,
      "##ters": 1101,
      "prevent": 1102,
      "f1": 1103,
      "hy": 1104,
      "presence": 1105,
      "cycle": 1106,
      "##dehyd": 1107,
      "au": 1108,
      "##idine": 1109,
      "##sed": 1110,
      "##ree": 1111,
      "##ursor": 1112,
      "##olog": 1113,
      "precursor": 1114,
      "acceptor": 1115,
      "c1": 1116,
      "##af": 1117,
      "cleavage": 1118,
      "substrates": 1119,
      "##face": 1120,
      "##b1": 1121,
      "##ks": 1122,
      "growth": 1123,
      "repeat": 1124,
      "stimula": 1125,
      "no": 1126,
      "adp": 1127,
      "##amin": 1128,
      "##ano": 1129,
      "##all": 1130,
      "thi": 1131,
      "recogn": 1132,
      "allow": 1133,
      "dehyd": 1134,
      "##eptide": 1135,
      "stalk": 1136,
      "metrfase": 1137,
      "p4": 1138,
      "their": 1139,
      "##rp": 1140,
      "respi": 1141,
      "##ound": 1142,
      "sy": 1143,
      "rs": 1144,
      "bl2": 1145,
      "##ized": 1146,
      "box": 1147,
      "activated": 1148,
      "##uble": 1149,
      "udp": 1150,
      "ts": 1151,
      "mtase": 1152,
      "##olip": 1153,
      "##oglyc": 1154,
      "red": 1155,
      "##usion": 1156,
      "mechan": 1157,
      "##ala": 1158,
      "##ratory": 1159,
      "50s": 1160,
      "##tan": 1161,
      "chaperone": 1162,
      "##ule": 1163,
      "##erol": 1164,
      "d2": 1165,
      "tf": 1166,
      "cellular": 1167,
      "home": 1168,
      "##der": 1169,
      "isomerase": 1170,
      "immun": 1171,
      "gp": 1172,
      "respiratory": 1173,
      "recom": 1174,
      "regulatory": 1175,
      "p450": 1176,
      "##ie": 1177,
      "##oside": 1178,
      "##dehyde": 1179,
      "##otransferase": 1180,
      "anticodon": 1181,
      "mu": 1182,
      "clus": 1183,
      "fat": 1184,
      "##arbox": 1185,
      "##ision": 1186,
      "##lyl": 1187,
      "gra": 1188,
      "large": 1189,
      "rc": 1190,
      "##inol": 1191,
      "##gar": 1192,
      "synt": 1193,
      "neu": 1194,
      "med": 1195,
      "tet": 1196,
      "carri": 1197,
      "directly": 1198,
      "##az": 1199,
      "neg": 1200,
      "bact": 1201,
      "##fec": 1202,
      "##rop": 1203,
      "recru": 1204,
      "iron": 1205,
      "nuclear": 1206,
      "ros": 1207,
      "sn": 1208,
      "##rel": 1209,
      "##17": 1210,
      "##dr": 1211,
      "hsp": 1212,
      "probable": 1213,
      "gam": 1214,
      "##rox": 1215,
      "prol": 1216,
      "var": 1217,
      "ds": 1218,
      "mtases": 1219,
      "div": 1220,
      "modula": 1221,
      "ext": 1222,
      "effic": 1223,
      "negative": 1224,
      "##lud": 1225,
      "kin": 1226,
      "oxidase": 1227,
      "##tif": 1228,
      "stranded": 1229,
      "addition": 1230,
      "fatty": 1231,
      "catalyz": 1232,
      "neur": 1233,
      "inser": 1234,
      "op": 1235,
      "##atch": 1236,
      "barrel": 1237,
      "cor": 1238,
      "##glyc": 1239,
      "reduction": 1240,
      "##ga": 1241,
      "##18": 1242,
      "bond": 1243,
      "##ides": 1244,
      "##cent": 1245,
      "ed": 1246,
      "glc": 1247,
      "toxin": 1248,
      "transferase": 1249,
      "##otic": 1250,
      "ket": 1251,
      "phot": 1252,
      "dam": 1253,
      "##veral": 1254,
      "my": 1255,
      "##ta": 1256,
      "linked": 1257,
      "using": 1258,
      "resul": 1259,
      "base": 1260,
      "##versible": 1261,
      "carbam": 1262,
      "##ingle": 1263,
      "##gi": 1264,
      "gamma": 1265,
      "s1": 1266,
      "ruva": 1267,
      "pa": 1268,
      "transferred": 1269,
      "##vo": 1270,
      "##tero": 1271,
      "##atid": 1272,
      "phe": 1273,
      "thio": 1274,
      "##eration": 1275,
      "attachment": 1276,
      "calc": 1277,
      "##ilit": 1278,
      "facilit": 1279,
      "associated": 1280,
      "wall": 1281,
      "rossm": 1282,
      "##iet": 1283,
      "inf": 1284,
      "rossmann": 1285,
      "##inyl": 1286,
      "##itol": 1287,
      "##tosis": 1288,
      "primary": 1289,
      "trig": 1290,
      "single": 1291,
      "wd": 1292,
      "includ": 1293,
      "indep": 1294,
      "organ": 1295,
      "cycl": 1296,
      "actin": 1297,
      "##tain": 1298,
      "pl": 1299,
      "guan": 1300,
      "##iety": 1301,
      "##enti": 1302,
      "prov": 1303,
      "##tively": 1304,
      "##ments": 1305,
      "maturation": 1306,
      "processing": 1307,
      "##fold": 1308,
      "inhibits": 1309,
      "rad": 1310,
      "methion": 1311,
      "sites": 1312,
      "##h2": 1313,
      "##ones": 1314,
      "##ger": 1315,
      "acp": 1316,
      "enc": 1317,
      "hex": 1318,
      "##ik": 1319,
      "10": 1320,
      "protease": 1321,
      "lyase": 1322,
      "carrier": 1323,
      "##its": 1324,
      "ribosomes": 1325,
      "##arly": 1326,
      "several": 1327,
      "##ins": 1328,
      "factors": 1329,
      "il": 1330,
      "uvr": 1331,
      "again": 1332,
      "##ave": 1333,
      "against": 1334,
      "tub": 1335,
      "ol": 1336,
      "##ast": 1337,
      "sequence": 1338,
      "##ive": 1339,
      "lact": 1340,
      "independent": 1341,
      "cond": 1342,
      "carbox": 1343,
      "##imer": 1344,
      "coupled": 1345,
      "kh": 1346,
      "carbon": 1347,
      "dir": 1348,
      "particip": 1349,
      "##osamine": 1350,
      "dimer": 1351,
      "mechanism": 1352,
      "capsid": 1353,
      "pyro": 1354,
      "psii": 1355,
      "##trfase": 1356,
      "##ec": 1357,
      "leu": 1358,
      "virus": 1359,
      "##mot": 1360,
      "including": 1361,
      "##midine": 1362,
      "secre": 1363,
      "asu": 1364,
      "##16": 1365,
      "##ulose": 1366,
      "##xy": 1367,
      "rpt": 1368,
      "urid": 1369,
      "mut": 1370,
      "##oly": 1371,
      "##ile": 1372,
      "##mg": 1373,
      "mism": 1374,
      "mismatch": 1375,
      "##olpyr": 1376,
      "70s": 1377,
      "##pg": 1378,
      "cluster": 1379,
      "##enyl": 1380,
      "ruvb": 1381,
      "##reg": 1382,
      "formyl": 1383,
      "##atu": 1384,
      "oxy": 1385,
      "key": 1386,
      "sep": 1387,
      "##rob": 1388,
      "intracellular": 1389,
      "tetra": 1390,
      "##aa": 1391,
      "c2": 1392,
      "##acet": 1393,
      "##uvate": 1394,
      "redox": 1395,
      "early": 1396,
      "##esion": 1397,
      "##ila": 1398,
      "low": 1399,
      "a1": 1400,
      "##formation": 1401,
      "proteas": 1402,
      "medi": 1403,
      "region": 1404,
      "asn": 1405,
      "nor": 1406,
      "oxidation": 1407,
      "olig": 1408,
      "dnaj": 1409,
      "dri": 1410,
      "##uctase": 1411,
      "diphosphate": 1412,
      "reversible": 1413,
      "biogenesis": 1414,
      "ms": 1415,
      "##iation": 1416,
      "ou": 1417,
      "calcium": 1418,
      "ribonucle": 1419,
      "##ite": 1420,
      "elongation": 1421,
      "##ix": 1422,
      "cr": 1423,
      "cc": 1424,
      "mig": 1425,
      "contac": 1426,
      "##ard": 1427,
      "##osuc": 1428,
      "thy": 1429,
      "##onate": 1430,
      "##ility": 1431,
      "post": 1432,
      "##inc": 1433,
      "double": 1434,
      "cleaves": 1435,
      "differenti": 1436,
      "##olate": 1437,
      "condens": 1438,
      "des": 1439,
      "##11": 1440,
      "##thi": 1441,
      "second": 1442,
      "mrnas": 1443,
      "remo": 1444,
      "##ribu": 1445,
      "##34": 1446,
      "##mit": 1447,
      "serine": 1448,
      "heme": 1449,
      "mis": 1450,
      "fts": 1451,
      "prib": 1452,
      "##fin": 1453,
      "##atin": 1454,
      "produces": 1455,
      "der": 1456,
      "level": 1457,
      "##prop": 1458,
      "gc": 1459,
      "del": 1460,
      "##omet": 1461,
      "structure": 1462,
      "induced": 1463,
      "##oxygenase": 1464,
      "multi": 1465,
      "##ass": 1466,
      "motif": 1467,
      "##dc": 1468,
      "fusion": 1469,
      "repress": 1470,
      "##30": 1471,
      "inhibitor": 1472,
      "cytos": 1473,
      "plant": 1474,
      "dimeth": 1475,
      "chan": 1476,
      "mal": 1477,
      "argin": 1478,
      "##zyme": 1479,
      "dihydroxy": 1480,
      "exchan": 1481,
      "##aryotic": 1482,
      "brid": 1483,
      "##24": 1484,
      "perox": 1485,
      "proces": 1486,
      "##acch": 1487,
      "##oreductase": 1488,
      "##racts": 1489,
      "apop": 1490,
      "surface": 1491,
      "efficient": 1492,
      "after": 1493,
      "##ctin": 1494,
      "chains": 1495,
      "differentiation": 1496,
      "auto": 1497,
      "##ranch": 1498,
      "##ities": 1499,
      "division": 1500,
      "sod": 1501,
      "lsu": 1502,
      "tyr": 1503,
      "expor": 1504,
      "eif": 1505,
      "dom2": 1506,
      "##acchar": 1507,
      "##da": 1508,
      "migration": 1509,
      "##osomal": 1510,
      "##otin": 1511,
      "##phosphor": 1512,
      "pyrid": 1513,
      "hetero": 1514,
      "##cting": 1515,
      "splic": 1516,
      "deoxy": 1517,
      "adh": 1518,
      "clp": 1519,
      "cas": 1520,
      "well": 1521,
      "##ht": 1522,
      "mf": 1523,
      "rb": 1524,
      "molecules": 1525,
      "complexes": 1526,
      "allows": 1527,
      "under": 1528,
      "glutamine": 1529,
      "amid": 1530,
      "rela": 1531,
      "##onin": 1532,
      "b6": 1533,
      "col": 1534,
      "produce": 1535,
      "have": 1536,
      "##membrane": 1537,
      "##ow": 1538,
      "##idase": 1539,
      "pyridox": 1540,
      "short": 1541,
      "##etic": 1542,
      "##cy": 1543,
      "##activ": 1544,
      "regulating": 1545,
      "##toxin": 1546,
      "residues": 1547,
      "##gluc": 1548,
      "##olipid": 1549,
      "efg": 1550,
      "branch": 1551,
      "##kinase": 1552,
      "free": 1553,
      "moiety": 1554,
      "##19": 1555,
      "trp": 1556,
      "wd40": 1557,
      "light": 1558,
      "alan": 1559,
      "##ibly": 1560,
      "adomet": 1561,
      "recombin": 1562,
      "##ious": 1563,
      "oxygen": 1564,
      "us5": 1565,
      "adenine": 1566,
      "methionine": 1567,
      "phosphatase": 1568,
      "metallo": 1569,
      "##ward": 1570,
      "##nce": 1571,
      "condensation": 1572,
      "decarbox": 1573,
      "thre": 1574,
      "##lasm": 1575,
      "##tidine": 1576,
      "aspart": 1577,
      "##tose": 1578,
      "four": 1579,
      "##70": 1580,
      "production": 1581,
      "when": 1582,
      "ta": 1583,
      "poss": 1584,
      "seem": 1585,
      "##1a": 1586,
      "nic": 1587,
      "ribose": 1588,
      "te": 1589,
      "metabolism": 1590,
      "oxidoreductase": 1591,
      "br": 1592,
      "oxidative": 1593,
      "##uridine": 1594,
      "rcpt": 1595,
      "##greg": 1596,
      "all": 1597,
      "exc": 1598,
      "state": 1599,
      "##b2": 1600,
      "cytoplasmic": 1601,
      "microt": 1602,
      "microtub": 1603,
      "phosphatid": 1604,
      "##ulation": 1605,
      "ves": 1606,
      "edit": 1607,
      "groel": 1608,
      "processes": 1609,
      "dnak": 1610,
      "receptors": 1611,
      "##ification": 1612,
      "fol": 1613,
      "manner": 1614,
      "contribu": 1615,
      "normal": 1616,
      "##omer": 1617,
      "muts": 1618,
      "##han": 1619,
      "rl": 1620,
      "section": 1621,
      "activities": 1622,
      "glcnac": 1623,
      "ss": 1624,
      "promot": 1625,
      "promoting": 1626,
      "pept": 1627,
      "##ope": 1628,
      "##tr": 1629,
      "##osed": 1630,
      "##pase": 1631,
      "these": 1632,
      "v1": 1633,
      "val": 1634,
      "##orph": 1635,
      "##mod": 1636,
      "trafac": 1637,
      "fmn": 1638,
      "various": 1639,
      "##53": 1640,
      "cla": 1641,
      "##ua": 1642,
      "threon": 1643,
      "heat": 1644,
      "recombination": 1645,
      "dead": 1646,
      "specificity": 1647,
      "pc": 1648,
      "pan": 1649,
      "virion": 1650,
      "##mine": 1651,
      "glucose": 1652,
      "long": 1653,
      "cod": 1654,
      "##xa": 1655,
      "##ater": 1656,
      "map": 1657,
      "h2": 1658,
      "seca": 1659,
      "interacts": 1660,
      "##yrin": 1661,
      "affin": 1662,
      "ins": 1663,
      "prop": 1664,
      "rub": 1665,
      "exchange": 1666,
      "##mt": 1667,
      "down": 1668,
      "forming": 1669,
      "lpl": 1670,
      "participates": 1671,
      "##dna": 1672,
      "genera": 1673,
      "##f1": 1674,
      "rnaseh": 1675,
      "sele": 1676,
      "glycine": 1677,
      "arc": 1678,
      "conformation": 1679,
      "affinity": 1680,
      "ct": 1681,
      "late": 1682,
      "nr": 1683,
      "##uld": 1684,
      "##ne": 1685,
      "orn": 1686,
      "##onuc": 1687,
      "block": 1688,
      "folding": 1689,
      "##roph": 1690,
      "ia": 1691,
      "rdtase": 1692,
      "chl": 1693,
      "pent": 1694,
      "bpl": 1695,
      "##ither": 1696,
      "grasp": 1697,
      "hep": 1698,
      "##no": 1699,
      "##mmon": 1700,
      "recruit": 1701,
      "dap": 1702,
      "vesic": 1703,
      "occ": 1704,
      "sper": 1705,
      "##xic": 1706,
      "ammon": 1707,
      "insertion": 1708,
      "alanine": 1709,
      "gr": 1710,
      "tyros": 1711,
      "domains": 1712,
      "##lc": 1713,
      "vitro": 1714,
      "proteasome": 1715,
      "##kel": 1716,
      "##ieved": 1717,
      "located": 1718,
      "seems": 1719,
      "m1": 1720,
      "cb": 1721,
      "su5": 1722,
      "within": 1723,
      "##onic": 1724,
      "##ays": 1725,
      "hd": 1726,
      "induces": 1727,
      "sm": 1728,
      "retic": 1729,
      "##pin": 1730,
      "recognition": 1731,
      "##enzyme": 1732,
      "##ight": 1733,
      "either": 1734,
      "reticul": 1735,
      "enhan": 1736,
      "don": 1737,
      "##enz": 1738,
      "endop": 1739,
      "##ery": 1740,
      "##izing": 1741,
      "gdp": 1742,
      "dnaa": 1743,
      "posi": 1744,
      "structural": 1745,
      "sens": 1746,
      "infe": 1747,
      "sugar": 1748,
      "center": 1749,
      "increase": 1750,
      "os": 1751,
      "##nap": 1752,
      "poten": 1753,
      "membran": 1754,
      "conj": 1755,
      "gat": 1756,
      "glycosyl": 1757,
      "bod": 1758,
      "prolif": 1759,
      "peri": 1760,
      "##asis": 1761,
      "prefer": 1762,
      "##15": 1763,
      "resulting": 1764,
      "##imate": 1765,
      "##pla": 1766,
      "rel": 1767,
      "##atic": 1768,
      "##osomes": 1769,
      "believed": 1770,
      "activates": 1771,
      "##ream": 1772,
      "effec": 1773,
      "maintain": 1774,
      "regulate": 1775,
      "pot": 1776,
      "que": 1777,
      "preventing": 1778,
      "flav": 1779,
      "reticulum": 1780,
      "prok": 1781,
      "contacts": 1782,
      "nucleoside": 1783,
      "##tially": 1784,
      "follow": 1785,
      "phosphoglyc": 1786,
      "infection": 1787,
      "nu": 1788,
      "arm": 1789,
      "mfs": 1790,
      "shock": 1791,
      "tubulin": 1792,
      "ion": 1793,
      "##ize": 1794,
      "rich": 1795,
      "while": 1796,
      "gmp": 1797,
      "cyclo": 1798,
      "##gr": 1799,
      "man": 1800,
      "conser": 1801,
      "translational": 1802,
      "##k1": 1803,
      "polyp": 1804,
      "##60": 1805,
      "traf": 1806,
      "cyclase": 1807,
      "methylthi": 1808,
      "endoplasmic": 1809,
      "##ari": 1810,
      "cop": 1811,
      "##osucc": 1812,
      "cyste": 1813,
      "pathways": 1814,
      "##tance": 1815,
      "resis": 1816,
      "##king": 1817,
      "ip": 1818,
      "mac": 1819,
      "##folate": 1820,
      "psi": 1821,
      "rsam": 1822,
      "adenosyl": 1823,
      "keto": 1824,
      "##stream": 1825,
      "##isco": 1826,
      "sodium": 1827,
      "##arate": 1828,
      "gh": 1829,
      "rhod": 1830,
      "##1b": 1831,
      "rap": 1832,
      "rubisco": 1833,
      "##tra": 1834,
      "##ving": 1835,
      "gpcr": 1836,
      "##ner": 1837,
      "head": 1838,
      "##aminase": 1839,
      "gatase": 1840,
      "molecular": 1841,
      "##usc": 1842,
      "glob": 1843,
      "##ulf": 1844,
      "immune": 1845,
      "apoptosis": 1846,
      "possibly": 1847,
      "##rix": 1848,
      "membranes": 1849,
      "transfers": 1850,
      "ns": 1851,
      "hair": 1852,
      "tyrosine": 1853,
      "ile": 1854,
      "upon": 1855,
      "cu": 1856,
      "psb": 1857,
      "cf": 1858,
      "##otide": 1859,
      "outer": 1860,
      "vp": 1861,
      "proliferation": 1862,
      "cp": 1863,
      "heterod": 1864,
      "enolase": 1865,
      "##phosphates": 1866,
      "nucleus": 1867,
      "cytoplasm": 1868,
      "iv": 1869,
      "aspartate": 1870,
      "##omain": 1871,
      "matrix": 1872,
      "##lx": 1873,
      "shik": 1874,
      "ammonia": 1875,
      "##he": 1876,
      "genome": 1877,
      "trigger": 1878,
      "reactions": 1879,
      "cysteine": 1880,
      "gly": 1881,
      "##kin": 1882,
      "hj": 1883,
      "##glut": 1884,
      "##mes": 1885,
      "glycerol": 1886,
      "ubq": 1887,
      "nadph": 1888,
      "##gin": 1889,
      "rr": 1890,
      "conjug": 1891,
      "##elial": 1892,
      "4fe": 1893,
      "##utase": 1894,
      "association": 1895,
      "converts": 1896,
      "##tn": 1897,
      "synthes": 1898,
      "##sa": 1899,
      "isomer": 1900,
      "some": 1901,
      "##ake": 1902,
      "##uses": 1903,
      "carboxy": 1904,
      "nitro": 1905,
      "groes": 1906,
      "##nase": 1907,
      "sh3": 1908,
      "##ositol": 1909,
      "levels": 1910,
      "consis": 1911,
      "does": 1912,
      "chromosome": 1913,
      "set": 1914,
      "water": 1915,
      "reca": 1916,
      "local": 1917,
      "export": 1918,
      "##gregation": 1919,
      "##ven": 1920,
      "##redoxin": 1921,
      "psd": 1922,
      "if2": 1923,
      "damage": 1924,
      "tat": 1925,
      "##cts": 1926,
      "donor": 1927,
      "phosphorib": 1928,
      "ions": 1929,
      "carbamo": 1930,
      "displa": 1931,
      "##hydrofolate": 1932,
      "##gs": 1933,
      "periph": 1934,
      "dc": 1935,
      "##nate": 1936,
      "hydrolyzes": 1937,
      "fur": 1938,
      "h3": 1939,
      "##kb": 1940,
      "nif": 1941,
      "phosphoglycerate": 1942,
      "cob": 1943,
      "inner": 1944,
      "incor": 1945,
      "##ah": 1946,
      "##accharide": 1947,
      "##yltrfase": 1948,
      "##eous": 1949,
      "##lamm": 1950,
      "hs": 1951,
      "dire": 1952,
      "##ill": 1953,
      "steps": 1954,
      "species": 1955,
      "##oprotein": 1956,
      "toward": 1957,
      "stimulates": 1958,
      "##oles": 1959,
      "uridine": 1960,
      "oxo": 1961,
      "components": 1962,
      "##fa": 1963,
      "rac": 1964,
      "gol": 1965,
      "##ures": 1966,
      "##able": 1967,
      "methylates": 1968,
      "plasma": 1969,
      "used": 1970,
      "side": 1971,
      "##lan": 1972,
      "##ostasis": 1973,
      "##sml": 1974,
      "##quinone": 1975,
      "adenyl": 1976,
      "hand": 1977,
      "##sion": 1978,
      "ho": 1979,
      "nuc": 1980,
      "pg": 1981,
      "##tena": 1982,
      "maintena": 1983,
      "maintenance": 1984,
      "hth": 1985,
      "eukaryotic": 1986,
      "ery": 1987,
      "ret": 1988,
      "##ages": 1989,
      "ye": 1990,
      "phosphatidyl": 1991,
      "isoprop": 1992,
      "rpb1": 1993,
      "##f2": 1994,
      "fila": 1995,
      "recyc": 1996,
      "##ple": 1997,
      "inflamm": 1998,
      "cruc": 1999,
      "##ord": 2000,
      "lp": 2001,
      "fun": 2002,
      "immediate": 2003,
      "helps": 2004,
      "encod": 2005,
      "chlo": 2006,
      "##glycerol": 2007,
      "arch": 2008,
      "proper": 2009,
      "chaperonin": 2010,
      "contributes": 2011,
      "respec": 2012,
      "open": 2013,
      "##go": 2014,
      "different": 2015,
      "exit": 2016,
      "obg": 2017,
      "resistance": 2018,
      "formed": 2019,
      "ul11": 2020,
      "20": 2021,
      "##ha": 2022,
      "necess": 2023,
      "pal": 2024,
      "##omutase": 2025,
      "golgi": 2026,
      "eryth": 2027,
      "concent": 2028,
      "body": 2029,
      "pse": 2030,
      "c2h2": 2031,
      "necessary": 2032,
      "##amide": 2033,
      "zinc": 2034,
      "dt": 2035,
      "##arged": 2036,
      "monooxygenase": 2037,
      "cation": 2038,
      "fl": 2039,
      "pks": 2040,
      "over": 2041,
      "##orter": 2042,
      "promote": 2043,
      "endonuclease": 2044,
      "def": 2045,
      "sigma": 2046,
      "pseud": 2047,
      "adap": 2048,
      "hydrogen": 2049,
      "chromatin": 2050,
      "##gb": 2051,
      "rnas": 2052,
      "pribtrfase": 2053,
      "nf": 2054,
      "##onal": 2055,
      "deaminase": 2056,
      "monophosphate": 2057,
      "##c1": 2058,
      "##ble": 2059,
      "##rated": 2060,
      "grpe": 2061,
      "junction": 2062,
      "autopha": 2063,
      "enzymes": 2064,
      "rf": 2065,
      "nucleotides": 2066,
      "enolpyr": 2067,
      "upt": 2068,
      "radical": 2069,
      "ubiquinone": 2070,
      "homeostasis": 2071,
      "traffic": 2072,
      "##nel": 2073,
      "##ms": 2074,
      "##mu": 2075,
      "##otrans": 2076,
      "##issu": 2077,
      "##trans": 2078,
      "fum": 2079,
      "uptake": 2080,
      "e3": 2081,
      "motor": 2082,
      "residue": 2083,
      "tissu": 2084,
      "##kine": 2085,
      "could": 2086,
      "ec": 2087,
      "##cing": 2088,
      "eps": 2089,
      "ul16": 2090,
      "fib": 2091,
      "xyl": 2092,
      "pyri": 2093,
      "us7": 2094,
      "sol": 2095,
      "bl9": 2096,
      "bacteria": 2097,
      "sel": 2098,
      "##last": 2099,
      "mes": 2100,
      "peripheral": 2101,
      "direct": 2102,
      "phys": 2103,
      "pyridoxal": 2104,
      "coenzyme": 2105,
      "than": 2106,
      "subsequently": 2107,
      "##psin": 2108,
      "rot": 2109,
      "##ritic": 2110,
      "concentration": 2111,
      "##ric": 2112,
      "hydroxyl": 2113,
      "##aldehyde": 2114,
      "put": 2115,
      "tun": 2116,
      "##rag": 2117,
      "##kelet": 2118,
      "e2": 2119,
      "ri": 2120,
      "##ylal": 2121,
      "##assium": 2122,
      "potassium": 2123,
      "quin": 2124,
      "nas": 2125,
      "##fore": 2126,
      "##terase": 2127,
      "supp": 2128,
      "ssu": 2129,
      "ara": 2130,
      "repressor": 2131,
      "ndh": 2132,
      "move": 2133,
      "gala": 2134,
      "oper": 2135,
      "try": 2136,
      "malate": 2137,
      "##bc": 2138,
      "##3p": 2139,
      "adenosine": 2140,
      "##titu": 2141,
      "##14": 2142,
      "sw": 2143,
      "mediating": 2144,
      "ftsz": 2145,
      "gre": 2146,
      "##dec": 2147,
      "##ione": 2148,
      "atg": 2149,
      "pren": 2150,
      "##ubiqu": 2151,
      "inhibition": 2152,
      "##termin": 2153,
      "provides": 2154,
      "plasto": 2155,
      "pi": 2156,
      "##orism": 2157,
      "musc": 2158,
      "##osuccinate": 2159,
      "##thyl": 2160,
      "ribulose": 2161,
      "ubiquinol": 2162,
      "pn": 2163,
      "##anoate": 2164,
      "##hc": 2165,
      "bridge": 2166,
      "pt": 2167,
      "##aged": 2168,
      "##mber": 2169,
      "##xomutase": 2170,
      "further": 2171,
      "tur": 2172,
      "peptidyl": 2173,
      "##orib": 2174,
      "near": 2175,
      "fin": 2176,
      "##amid": 2177,
      "respectively": 2178,
      "##25": 2179,
      "thymid": 2180,
      "photos": 2181,
      "aminotransferase": 2182,
      "photosystem": 2183,
      "able": 2184,
      "changes": 2185,
      "only": 2186,
      "shut": 2187,
      "urease": 2188,
      "shikimate": 2189,
      "ul5": 2190,
      "dimethylal": 2191,
      "mnmg": 2192,
      "biotin": 2193,
      "ppi": 2194,
      "##apeptide": 2195,
      "related": 2196,
      "glycosyltransferase": 2197,
      "had": 2198,
      "subgr": 2199,
      "delta": 2200,
      "pd": 2201,
      "dimethylallyl": 2202,
      "oct": 2203,
      "##ilin": 2204,
      "##ocytes": 2205,
      "##tide": 2206,
      "##ological": 2207,
      "sour": 2208,
      "##taneous": 2209,
      "pf": 2210,
      "##oth": 2211,
      "functional": 2212,
      "prevents": 2213,
      "heterodimer": 2214,
      "clpp": 2215,
      "terminus": 2216,
      "peptides": 2217,
      "us2": 2218,
      "##apr": 2219,
      "exhib": 2220,
      "psduridine": 2221,
      "ubiquitination": 2222,
      "##tetra": 2223,
      "##of": 2224,
      "threonine": 2225,
      "##pene": 2226,
      "promoter": 2227,
      "ligand": 2228,
      "polypeptide": 2229,
      "stability": 2230,
      "nascent": 2231,
      "cofac": 2232,
      "iic": 2233,
      "couples": 2234,
      "horm": 2235,
      "##oglycan": 2236,
      "positive": 2237,
      "pyrophosphate": 2238,
      "uro": 2239,
      "##lux": 2240,
      "extracellular": 2241,
      "antigen": 2242,
      "ferredoxin": 2243,
      "##r1": 2244,
      "##active": 2245,
      "##ubiquitin": 2246,
      "##organ": 2247,
      "ul22": 2248,
      "emb": 2249,
      "homolog": 2250,
      "channels": 2251,
      "interactions": 2252,
      "splicing": 2253,
      "##m1": 2254,
      "lactate": 2255,
      "che": 2256,
      "downstream": 2257,
      "cytosol": 2258,
      "##terin": 2259,
      "mach": 2260,
      "us4": 2261,
      "mature": 2262,
      "prog": 2263,
      "scaf": 2264,
      "##21": 2265,
      "sequen": 2266,
      "new": 2267,
      "##mh": 2268,
      "##p1": 2269,
      "bre": 2270,
      "##cs": 2271,
      "mt": 2272,
      "found": 2273,
      "hyb": 2274,
      "synap": 2275,
      "scaffold": 2276,
      "##omic": 2277,
      "##orismate": 2278,
      "pen": 2279,
      "tunnel": 2280,
      "##54": 2281,
      "pyrimidine": 2282,
      "guanine": 2283,
      "macro": 2284,
      "shutt": 2285,
      "rab": 2286,
      "##ogl": 2287,
      "us13": 2288,
      "##tures": 2289,
      "f0": 2290,
      "initiator": 2291,
      "##stitu": 2292,
      "coupling": 2293,
      "##virus": 2294,
      "perme": 2295,
      "product": 2296,
      "composed": 2297,
      "methylation": 2298,
      "ax": 2299,
      "##ough": 2300,
      "s4": 2301,
      "##lytic": 2302,
      "vol": 2303,
      "machin": 2304,
      "ctp": 2305,
      "triphosphates": 2306,
      "##racil": 2307,
      "microtubule": 2308,
      "lipoprotein": 2309,
      "eftu": 2310,
      "adhesion": 2311,
      "##orin": 2312,
      "purine": 2313,
      "##very": 2314,
      "isopropyl": 2315,
      "nbd": 2316,
      "##cad": 2317,
      "##mat": 2318,
      "recruitment": 2319,
      "deac": 2320,
      "regulated": 2321,
      "associates": 2322,
      "gcv": 2323,
      "##crpt": 2324,
      "succinate": 2325,
      "tscrpt": 2326,
      "dx": 2327,
      "molecule": 2328,
      "##ratase": 2329,
      "controls": 2330,
      "##itrate": 2331,
      "a2": 2332,
      "##sens": 2333,
      "##asing": 2334,
      "ha": 2335,
      "novo": 2336,
      "g3p": 2337,
      "##ylyl": 2338,
      "interface": 2339,
      "hairpin": 2340,
      "org": 2341,
      "proto": 2342,
      "pho": 2343,
      "incorpo": 2344,
      "morph": 2345,
      "rnap": 2346,
      "onto": 2347,
      "##osin": 2348,
      "av": 2349,
      "epith": 2350,
      "util": 2351,
      "succinyl": 2352,
      "hemo": 2353,
      "##o1": 2354,
      "##atory": 2355,
      "editing": 2356,
      "show": 2357,
      "thf": 2358,
      "##terol": 2359,
      "cofactor": 2360,
      "phexomutase": 2361,
      "hlx": 2362,
      "peroxidase": 2363,
      "##ding": 2364,
      "arginine": 2365,
      "compound": 2366,
      "catalysis": 2367,
      "omp": 2368,
      "tmrna": 2369,
      "##glucosamine": 2370,
      "negatively": 2371,
      "##pd": 2372,
      "##28": 2373,
      "ppiase": 2374,
      "##matic": 2375,
      "##icar": 2376,
      "glyceral": 2377,
      "uvrb": 2378,
      "##valent": 2379,
      "thiored": 2380,
      "histid": 2381,
      "recognizes": 2382,
      "neuro": 2383,
      "exhibits": 2384,
      "##ited": 2385,
      "##phyrin": 2386,
      "source": 2387,
      "##lysis": 2388,
      "hol": 2389,
      "##keto": 2390,
      "##resses": 2391,
      "muscle": 2392,
      "##sin": 2393,
      "cir": 2394,
      "sa": 2395,
      "##porphyrin": 2396,
      "##osyltransferase": 2397,
      "modulates": 2398,
      "methylthiotransferase": 2399,
      "uracil": 2400,
      "##isom": 2401,
      "70": 2402,
      "condition": 2403,
      "toxic": 2404,
      "carbamoyl": 2405,
      "activator": 2406,
      "thioredoxin": 2407,
      "modification": 2408,
      "selec": 2409,
      "shuttles": 2410,
      "nm": 2411,
      "trafficking": 2412,
      "##robial": 2413,
      "quinones": 2414,
      "fg": 2415,
      "aminotrans": 2416,
      "plastoquinone": 2417,
      "pap": 2418,
      "us19": 2419,
      "chorismate": 2420,
      "isop": 2421,
      "bis": 2422,
      "sis": 2423,
      "##oline": 2424,
      "topo": 2425,
      "driven": 2426,
      "globin": 2427,
      "helical": 2428,
      "##drlase": 2429,
      "rate": 2430,
      "cre": 2431,
      "perip": 2432,
      "endonuc": 2433,
      "##round": 2434,
      "u34": 2435,
      "ent": 2436,
      "ul14": 2437,
      "centers": 2438,
      "volt": 2439,
      "hyd": 2440,
      "dehydtase": 2441,
      "arom": 2442,
      "ruvc": 2443,
      "thiolase": 2444,
      "ini": 2445,
      "serves": 2446,
      "secretion": 2447,
      "more": 2448,
      "##rance": 2449,
      "neuronal": 2450,
      "trme": 2451,
      "ribsml": 2452,
      "lr": 2453,
      "cych": 2454,
      "##amp": 2455,
      "ghmp": 2456,
      "##37": 2457,
      "conditions": 2458,
      "ir": 2459,
      "##ied": 2460,
      "exten": 2461,
      "##viron": 2462,
      "##4s": 2463,
      "plat": 2464,
      "pair": 2465,
      "lexa": 2466,
      "stalled": 2467,
      "##ump": 2468,
      "bl12": 2469,
      "##ane": 2470,
      "catalyze": 2471,
      "##licated": 2472,
      "leads": 2473,
      "##psn": 2474,
      "cis": 2475,
      "dm": 2476,
      "us11": 2477,
      "rhodpsn": 2478,
      "##ack": 2479,
      "they": 2480,
      "flag": 2481,
      "##26": 2482,
      "damaged": 2483,
      "nud": 2484,
      "transmembrane": 2485,
      "environ": 2486,
      "embry": 2487,
      "ul15": 2488,
      "groups": 2489,
      "##nown": 2490,
      "##out": 2491,
      "iia": 2492,
      "##ns": 2493,
      "##athione": 2494,
      "interfer": 2495,
      "hii": 2496,
      "ul6": 2497,
      "##rotate": 2498,
      "requires": 2499,
      "lysine": 2500,
      "##valerate": 2501,
      "##apsid": 2502,
      "temp": 2503,
      "three": 2504,
      "cyclic": 2505,
      "37": 2506,
      "bas": 2507,
      "neurons": 2508,
      "ran": 2509,
      "##iral": 2510,
      "effector": 2511,
      "released": 2512,
      "nitrogen": 2513,
      "ic": 2514,
      "14": 2515,
      "phd": 2516,
      "bl28": 2517,
      "anch": 2518,
      "symp": 2519,
      "##ocytosis": 2520,
      "out": 2521,
      "##tetrahydrofolate": 2522,
      "hr": 2523,
      "##emase": 2524,
      "racemase": 2525,
      "mediator": 2526,
      "##ure": 2527,
      "assis": 2528,
      "environment": 2529,
      "activating": 2530,
      "##methyl": 2531,
      "18": 2532,
      "##ense": 2533,
      "enzymatic": 2534,
      "##rn": 2535,
      "sal": 2536,
      "polymer": 2537,
      "phase": 2538,
      "##roch": 2539,
      "ori": 2540,
      "28": 2541,
      "phospholipid": 2542,
      "movement": 2543,
      "inactiv": 2544,
      "acting": 2545,
      "##23": 2546,
      "ge": 2547,
      "##di": 2548,
      "##ties": 2549,
      "alter": 2550,
      "tu": 2551,
      "am": 2552,
      "flu": 2553,
      "sna": 2554,
      "recf": 2555,
      "rpb2": 2556,
      "nh": 2557,
      "##aprenyl": 2558,
      "confer": 2559,
      "bl31": 2560,
      "##int": 2561,
      "termination": 2562,
      "encoded": 2563,
      "transp": 2564,
      "##27": 2565,
      "catalyzed": 2566,
      "internal": 2567,
      "lectin": 2568,
      "##ning": 2569,
      "ul10": 2570,
      "eff": 2571,
      "recycling": 2572,
      "dom3": 2573,
      "break": 2574,
      "dsdna": 2575,
      "##ish": 2576,
      "machinery": 2577,
      "interact": 2578,
      "fing": 2579,
      "##unctional": 2580,
      "##fect": 2581,
      "md": 2582,
      "##ival": 2583,
      "dehydratase": 2584,
      "est": 2585,
      "##rine": 2586,
      "aromatic": 2587,
      "alk": 2588,
      "lesion": 2589,
      "accu": 2590,
      "##the": 2591,
      "dephosphor": 2592,
      "egf": 2593,
      "19": 2594,
      "platform": 2595,
      "##ime": 2596,
      "thymidylate": 2597,
      "bro": 2598,
      "insert": 2599,
      "11": 2600,
      "us14": 2601,
      "phosphorylates": 2602,
      "gram": 2603,
      "##mc": 2604,
      "pase": 2605,
      "insulin": 2606,
      "yb": 2607,
      "phosphorylated": 2608,
      "provid": 2609,
      "##enoid": 2610,
      "##ute": 2611,
      "panto": 2612,
      "nsp": 2613,
      "app": 2614,
      "ipm": 2615,
      "following": 2616,
      "##ars": 2617,
      "modif": 2618,
      "conserves": 2619,
      "##opterin": 2620,
      "13": 2621,
      "gal": 2622,
      "diacyl": 2623,
      "lipoyl": 2624,
      "star": 2625,
      "fab": 2626,
      "multiple": 2627,
      "cytoskelet": 2628,
      "##yltrans": 2629,
      "##act": 2630,
      "so": 2631,
      "terpene": 2632,
      "involves": 2633,
      "##nes": 2634,
      "pyruvate": 2635,
      "stabilizes": 2636,
      "mc": 2637,
      "stable": 2638,
      "##ived": 2639,
      "##ire": 2640,
      "##iotic": 2641,
      "anth": 2642,
      "classic": 2643,
      "present": 2644,
      "pseudour": 2645,
      "##13": 2646,
      "str": 2647,
      "occurs": 2648,
      "##rb": 2649,
      "kap": 2650,
      "##malate": 2651,
      "generating": 2652,
      "iib": 2653,
      "cytidine": 2654,
      "element": 2655,
      "transpt": 2656,
      "4fe4s": 2657,
      "translocated": 2658,
      "likely": 2659,
      "top": 2660,
      "epithelial": 2661,
      "implicated": 2662,
      "dom1": 2663,
      "tn": 2664,
      "semi": 2665,
      "derived": 2666,
      "finger": 2667,
      "access": 2668,
      "glutathione": 2669,
      "##ory": 2670,
      "death": 2671,
      "tail": 2672,
      "##uanine": 2673,
      "integrase": 2674,
      "murnac": 2675,
      "purm": 2676,
      "isopropylmalate": 2677,
      "us10": 2678,
      "coord": 2679,
      "remod": 2680,
      "cyclin": 2681,
      "##istic": 2682,
      "envel": 2683,
      "envelope": 2684,
      "ro": 2685,
      "##orp": 2686,
      "##lh": 2687,
      "##sub": 2688,
      "determin": 2689,
      "surv": 2690,
      "##ketide": 2691,
      "##tb": 2692,
      "##methion": 2693,
      "##bs": 2694,
      "pore": 2695,
      "shows": 2696,
      "##eptidase": 2697,
      "##ading": 2698,
      "##cl": 2699,
      "genomic": 2700,
      "##olytic": 2701,
      "hormone": 2702,
      "remodel": 2703,
      "nadp": 2704,
      "prtase": 2705,
      "entry": 2706,
      "filament": 2707,
      "mg": 2708,
      "localization": 2709,
      "cychdrlase": 2710,
      "duf": 2711,
      "##esin": 2712,
      "reducing": 2713,
      "cer": 2714,
      "diamin": 2715,
      "bs6": 2716,
      "##ante": 2717,
      "protons": 2718,
      "we": 2719,
      "copper": 2720,
      "cpn": 2721,
      "reduced": 2722,
      "##antethe": 2723,
      "mra": 2724,
      "mob": 2725,
      "atom": 2726,
      "responses": 2727,
      "##p3": 2728,
      "dip": 2729,
      "##acid": 2730,
      "##2a": 2731,
      "##con": 2732,
      "n6": 2733,
      "##hydrolase": 2734,
      "hybrid": 2735,
      "e1": 2736,
      "bif": 2737,
      "bs18": 2738,
      "##porphyrinogen": 2739,
      "proline": 2740,
      "subd": 2741,
      "recomb": 2742,
      "cil": 2743,
      "hat": 2744,
      "haem": 2745,
      "transketo": 2746,
      "us15": 2747,
      "##gal": 2748,
      "retro": 2749,
      "line": 2750,
      "##onyl": 2751,
      "##ors": 2752,
      "adenylosuccinate": 2753,
      "bl25": 2754,
      "peptidoglycan": 2755,
      "yielding": 2756,
      "tpr": 2757,
      "kn": 2758,
      "trimer": 2759,
      "coase": 2760,
      "rimp": 2761,
      "event": 2762,
      "ump": 2763,
      "tif": 2764,
      "##do": 2765,
      "stem": 2766,
      "tp": 2767,
      "vesicles": 2768,
      "pseudouridine": 2769,
      "inflammatory": 2770,
      "far": 2771,
      "maintaining": 2772,
      "##oxide": 2773,
      "been": 2774,
      "survival": 2775,
      "sulfate": 2776,
      "critic": 2777,
      "##oph": 2778,
      "glucosamine": 2779,
      "nd": 2780,
      "kappa": 2781,
      "dihydroo": 2782,
      "##cu": 2783,
      "number": 2784,
      "##rain": 2785,
      "##ax": 2786,
      "deacet": 2787,
      "efflux": 2788,
      "##acylated": 2789,
      "diph": 2790,
      "critical": 2791,
      "antib": 2792,
      "trm": 2793,
      "vivo": 2794,
      "##onit": 2795,
      "deaz": 2796,
      "##eptides": 2797,
      "fruc": 2798,
      "appe": 2799,
      "hal": 2800,
      "##ocyste": 2801,
      "voltage": 2802,
      "##inucle": 2803,
      "dissoc": 2804,
      "ribonucleoside": 2805,
      "consens": 2806,
      "consensus": 2807,
      "isomerization": 2808,
      "##phosphatase": 2809,
      "monomer": 2810,
      "most": 2811,
      "##olar": 2812,
      "su2": 2813,
      "repression": 2814,
      "##omal": 2815,
      "##odomain": 2816,
      "decarboxylation": 2817,
      "##dl": 2818,
      "##d1": 2819,
      "enz": 2820,
      "targeting": 2821,
      "##epa": 2822,
      "##yltransf": 2823,
      "sepa": 2824,
      "organization": 2825,
      "inorgan": 2826,
      "inorganic": 2827,
      "##gt": 2828,
      "##iform": 2829,
      "displays": 2830,
      "nucl": 2831,
      "influ": 2832,
      "##acter": 2833,
      "##ipase": 2834,
      "reco": 2835,
      "covalent": 2836,
      "##azole": 2837,
      "5s": 2838,
      "deli": 2839,
      "polar": 2840,
      "##gers": 2841,
      "chlorop": 2842,
      "##verse": 2843,
      "indole": 2844,
      "semialdehyde": 2845,
      "##58": 2846,
      "undergo": 2847,
      "##saccharide": 2848,
      "protects": 2849,
      "cruciform": 2850,
      "dy": 2851,
      "##a1": 2852,
      "rear": 2853,
      "fumarate": 2854,
      "generation": 2855,
      "erg": 2856,
      "activate": 2857,
      "us12": 2858,
      "us8": 2859,
      "arres": 2860,
      "##lid": 2861,
      "min": 2862,
      "tac": 2863,
      "degrades": 2864,
      "extra": 2865,
      "s8": 2866,
      "##eng": 2867,
      "apo": 2868,
      "##29": 2869,
      "17": 2870,
      "remodeling": 2871,
      "codons": 2872,
      "rearran": 2873,
      "##carb": 2874,
      "##tm": 2875,
      "##imal": 2876,
      "pathogen": 2877,
      "template": 2878,
      "us3": 2879,
      "uvrc": 2880,
      "aggregation": 2881,
      "##ien": 2882,
      "##use": 2883,
      "##ior": 2884,
      "deazag": 2885,
      "rim": 2886,
      "lyso": 2887,
      "grea": 2888,
      "##est": 2889,
      "retin": 2890,
      "wob": 2891,
      "wobble": 2892,
      "nudix": 2893,
      "##mph": 2894,
      "##odies": 2895,
      "homologous": 2896,
      "##obox": 2897,
      "##ines": 2898,
      "homeobox": 2899,
      "phen": 2900,
      "nucleates": 2901,
      "antipor": 2902,
      "##ranyl": 2903,
      "cul": 2904,
      "##folded": 2905,
      "##roche": 2906,
      "memb": 2907,
      "certain": 2908,
      "##unc": 2909,
      "##hol": 2910,
      "chem": 2911,
      "archae": 2912,
      "physi": 2913,
      "##glo": 2914,
      "glycoprotein": 2915,
      "virul": 2916,
      "##anth": 2917,
      "lrr": 2918,
      "conformational": 2919,
      "newly": 2920,
      "##rity": 2921,
      "integrity": 2922,
      "aconit": 2923,
      "##imin": 2924,
      "dim": 2925,
      "##oride": 2926,
      "##inositol": 2927,
      "triggers": 2928,
      "pk": 2929,
      "cris": 2930,
      "biosynthetic": 2931,
      "spon": 2932,
      "##microbial": 2933,
      "tissues": 2934,
      "spontaneous": 2935,
      "fy": 2936,
      "gu": 2937,
      "##cer": 2938,
      "potential": 2939,
      "uses": 2940,
      "antimicrobial": 2941,
      "##amer": 2942,
      "decarboxylase": 2943,
      "excit": 2944,
      "dsu": 2945,
      "inhibiting": 2946,
      "called": 2947,
      "##otides": 2948,
      "##lav": 2949,
      "charged": 2950,
      "bl35": 2951,
      "products": 2952,
      "catalyzing": 2953,
      "converted": 2954,
      "##ester": 2955,
      "##ornase": 2956,
      "generate": 2957,
      "exornase": 2958,
      "positions": 2959,
      "net": 2960,
      "##55": 2961,
      "##ulfide": 2962,
      "stat": 2963,
      "##cular": 2964,
      "undec": 2965,
      "##ocyte": 2966,
      "dihydroorotate": 2967,
      "hisa": 2968,
      "turn": 2969,
      "rapid": 2970,
      "intercon": 2971,
      "resol": 2972,
      "mutl": 2973,
      "##zed": 2974,
      "polyketide": 2975,
      "might": 2976,
      "##cohol": 2977,
      "gated": 2978,
      "ome": 2979,
      "taco1": 2980,
      "12": 2981,
      "bud": 2982,
      "ade": 2983,
      "##oribonuclease": 2984,
      "plastid": 2985,
      "broad": 2986,
      "##idae": 2987,
      "aldehyde": 2988,
      "omega": 2989,
      "sub2": 2990,
      "id": 2991,
      "capp": 2992,
      "undecaprenyl": 2993,
      "defense": 2994,
      "##ian": 2995,
      "synthesized": 2996,
      "mid": 2997,
      "ul4": 2998,
      "autophagy": 2999,
      "compounds": 3000,
      "carbo": 3001,
      "fyve": 3002,
      "oh": 3003,
      "compe": 3004,
      "stages": 3005,
      "##ds": 3006,
      "4pyr": 3007,
      "yid": 3008,
      "cytokine": 3009,
      "alcohol": 3010,
      "nit": 3011,
      "contains": 3012,
      "histidinol": 3013,
      "hydrolases": 3014,
      "bl21": 3015,
      "operon": 3016,
      "bl33": 3017,
      "particle": 3018,
      "fructose": 3019,
      "##tility": 3020,
      "24": 3021,
      "microtubules": 3022,
      "mnma": 3023,
      "genetic": 3024,
      "strong": 3025,
      "symporter": 3026,
      "##39": 3027,
      "trnasynth": 3028,
      "acetylglucosamine": 3029,
      "tt": 3030,
      "blocks": 3031,
      "virulence": 3032,
      "epim": 3033,
      "para": 3034,
      "conne": 3035,
      "transition": 3036,
      "##gg": 3037,
      "lactam": 3038,
      "##gic": 3039,
      "##tent": 3040,
      "34": 3041,
      "##35": 3042,
      "colla": 3043,
      "triphosphate": 3044,
      "##ept": 3045,
      "rpb": 3046,
      "glyceraldehyde": 3047,
      "galac": 3048,
      "clpx": 3049,
      "nag": 3050,
      "removal": 3051,
      "pentapeptide": 3052,
      "mutase": 3053,
      "dyna": 3054,
      "effect": 3055,
      "ul30": 3056,
      "produced": 3057,
      "ribulosep": 3058,
      "enga": 3059,
      "##cp": 3060,
      "##transferase": 3061,
      "##but": 3062,
      "##sh": 3063,
      "ul24": 3064,
      "##mis": 3065,
      "rpo": 3066,
      "##amoyl": 3067,
      "preference": 3068,
      "ul29": 3069,
      "##6p": 3070,
      "producing": 3071,
      "oxase": 3072,
      "particles": 3073,
      "ner": 3074,
      "##aps": 3075,
      "transf": 3076,
      "infec": 3077,
      "cg": 3078,
      "##ucine": 3079,
      "##aturated": 3080,
      "ful": 3081,
      "##ll": 3082,
      "da": 3083,
      "##anin": 3084,
      "tum": 3085,
      "wnt": 3086,
      "##arac": 3087,
      "adenylate": 3088,
      "removes": 3089,
      "##her": 3090,
      "facilitates": 3091,
      "erythr": 3092,
      "them": 3093,
      "##isomerase": 3094,
      "h2a": 3095,
      "sor": 3096,
      "diphos": 3097,
      "##aracter": 3098,
      "##sugar": 3099,
      "diphossugar": 3100,
      "##oin": 3101,
      "cyclization": 3102,
      "15": 3103,
      "elements": 3104,
      "phosphoen": 3105,
      "##olpyruvate": 3106,
      "##ein": 3107,
      "phosphoenolpyruvate": 3108,
      "hum": 3109,
      "incorporation": 3110,
      "dyn": 3111,
      "ul3": 3112,
      "interconversion": 3113,
      "m20": 3114,
      "pts": 3115,
      "##gluconate": 3116,
      "exonuclease": 3117,
      "aspar": 3118,
      "targets": 3119,
      "perform": 3120,
      "yq": 3121,
      "ure": 3122,
      "##cn": 3123,
      "ak": 3124,
      "##reasing": 3125,
      "phosphodies": 3126,
      "mitochondria": 3127,
      "origin": 3128,
      "era": 3129,
      "cov": 3130,
      "##lood": 3131,
      "erythritol": 3132,
      "coope": 3133,
      "homeodomain": 3134,
      "intro": 3135,
      "uvra": 3136,
      "##yst": 3137,
      "nt": 3138,
      "cytoskeleton": 3139,
      "dual": 3140,
      "hpr": 3141,
      "accum": 3142,
      "clamp": 3143,
      "##48": 3144,
      "##avir": 3145,
      "##acu": 3146,
      "aconitase": 3147,
      "pump": 3148,
      "inositol": 3149,
      "brl": 3150,
      "cca": 3151,
      "glur": 3152,
      "transketolase": 3153,
      "preferen": 3154,
      "blood": 3155,
      "least": 3156,
      "##apep": 3157,
      "cpn60": 3158,
      "##len": 3159,
      "upp": 3160,
      "final": 3161,
      "##mura": 3162,
      "tcp": 3163,
      "known": 3164,
      "hisf": 3165,
      "##omethyl": 3166,
      "alb": 3167,
      "rm": 3168,
      "transduction": 3169,
      "rho": 3170,
      "flow": 3171,
      "slc": 3172,
      "amidase": 3173,
      "engb": 3174,
      "ul13": 3175,
      "innate": 3176,
      "thiamine": 3177,
      "macropha": 3178,
      "##rup": 3179,
      "phosphoribosyltransferase": 3180,
      "glurdtase": 3181,
      "rem": 3182,
      "##22": 3183,
      "##90": 3184,
      "##lamine": 3185,
      "ubia": 3186,
      "dutpase": 3187,
      "before": 3188,
      "lymph": 3189,
      "cad": 3190,
      "cytosolic": 3191,
      "appears": 3192,
      "promoters": 3193,
      "regions": 3194,
      "tak": 3195,
      "signals": 3196,
      "provided": 3197,
      "use": 3198,
      "ends": 3199,
      "smp": 3200,
      "messen": 3201,
      "pnpase": 3202,
      "her": 3203,
      "acyltransferase": 3204,
      "acetate": 3205,
      "sug": 3206,
      "increases": 3207,
      "arabin": 3208,
      "limi": 3209,
      "##ring": 3210,
      "fuc": 3211,
      "vas": 3212,
      "interacting": 3213,
      "esu": 3214,
      "accel": 3215,
      "##phan": 3216,
      "##ald": 3217,
      "progression": 3218,
      "bisphosphate": 3219,
      "histones": 3220,
      "constitu": 3221,
      "tgf": 3222,
      "##let": 3223,
      "dehydration": 3224,
      "##roid": 3225,
      "preq": 3226,
      "##thrin": 3227,
      "##ze": 3228,
      "rnf": 3229,
      "precursors": 3230,
      "prokaryotic": 3231,
      "cytid": 3232,
      "trua": 3233,
      "consist": 3234,
      "tag": 3235,
      "choles": 3236,
      "carboxyl": 3237,
      "integrin": 3238,
      "frag": 3239,
      "##k2": 3240,
      "stage": 3241,
      "many": 3242,
      "carbohyd": 3243,
      "dup": 3244,
      "spind": 3245,
      "pyrv": 3246,
      "hmg": 3247,
      "##pond": 3248,
      "prenyltransferase": 3249,
      "c4": 3250,
      "sph": 3251,
      "yv": 3252,
      "segregation": 3253,
      "##oserine": 3254,
      "nifb": 3255,
      "misacylated": 3256,
      "##subunit": 3257,
      "##inic": 3258,
      "place": 3259,
      "highly": 3260,
      "chloroplast": 3261,
      "kda": 3262,
      "##thano": 3263,
      "rrm": 3264,
      "##okinase": 3265,
      "##ature": 3266,
      "induction": 3267,
      "##ability": 3268,
      "pcmh": 3269,
      "cdc": 3270,
      "farnes": 3271,
      "##ogenous": 3272,
      "7tm": 3273,
      "recr": 3274,
      "##enten": 3275,
      "weak": 3276,
      "dynein": 3277,
      "back": 3278,
      "acetyltransferase": 3279,
      "sugges": 3280,
      "synaptic": 3281,
      "nus": 3282,
      "yvtn": 3283,
      "epsp": 3284,
      "lepa": 3285,
      "##l1": 3286,
      "##tc": 3287,
      "sto": 3288,
      "plipase": 3289,
      "rearrange": 3290,
      "scorp": 3291,
      "scorpion": 3292,
      "diaminop": 3293,
      "malonyl": 3294,
      "followed": 3295,
      "hydroxylation": 3296,
      "##ength": 3297,
      "tel": 3298,
      "assembled": 3299,
      "chlpt": 3300,
      "splice": 3301,
      "messenger": 3302,
      "restr": 3303,
      "aspa": 3304,
      "facilitating": 3305,
      "dic": 3306,
      "pdx": 3307,
      "##onucleotides": 3308,
      "apical": 3309,
      "##esterase": 3310,
      "helix": 3311,
      "hsp70": 3312,
      "antiv": 3313,
      "##80": 3314,
      "enoyl": 3315,
      "endoth": 3316,
      "disulfide": 3317,
      "tfrase": 3318,
      "glutamyl": 3319,
      "tnf": 3320,
      "cog": 3321,
      "elimin": 3322,
      "ena": 3323,
      "##robic": 3324,
      "gatb": 3325,
      "##otoxin": 3326,
      "dhq": 3327,
      "structures": 3328,
      "##ork": 3329,
      "##ero": 3330,
      "fn": 3331,
      "##t1": 3332,
      "##ithine": 3333,
      "deriv": 3334,
      "spindle": 3335,
      "mi": 3336,
      "4s": 3337,
      "basal": 3338,
      "srp": 3339,
      "linear": 3340,
      "separation": 3341,
      "opti": 3342,
      "stabilize": 3343,
      "vesicle": 3344,
      "rbfa": 3345,
      "periplasmic": 3346,
      "##36": 3347,
      "ribonucleotide": 3348,
      "upf02": 3349,
      "every": 3350,
      "antiporter": 3351,
      "rsm": 3352,
      "plate": 3353,
      "##yll": 3354,
      "misch": 3355,
      "spo": 3356,
      "vacu": 3357,
      "##phosphatid": 3358,
      "ppase": 3359,
      "##olipase": 3360,
      "antiviral": 3361,
      "bl17": 3362,
      "threonyl": 3363,
      "##bol": 3364,
      "nuclease": 3365,
      "4pyrrol": 3366,
      "immunity": 3367,
      "bl19": 3368,
      "##iency": 3369,
      "anten": 3370,
      "hatpase": 3371,
      "branched": 3372,
      "read": 3373,
      "##ans": 3374,
      "##icol": 3375,
      "us17": 3376,
      "interferon": 3377,
      "kow": 3378,
      "indi": 3379,
      "lid": 3380,
      "##itch": 3381,
      "enhances": 3382,
      "##oacet": 3383,
      "##rug": 3384,
      "mapk": 3385,
      "disrup": 3386,
      "preferentially": 3387,
      "##iaa": 3388,
      "30": 3389,
      "##choline": 3390,
      "posses": 3391,
      "endocytosis": 3392,
      "nq": 3393,
      "np": 3394,
      "represses": 3395,
      "bonds": 3396,
      "yidc": 3397,
      "dioxygenase": 3398,
      "stimulated": 3399,
      "##toxic": 3400,
      "##racy": 3401,
      "ul23": 3402,
      "##bulin": 3403,
      "around": 3404,
      "##pto": 3405,
      "##midazole": 3406,
      "##rani": 3407,
      "neut": 3408,
      "##ternal": 3409,
      "mak": 3410,
      "##antly": 3411,
      "phosphorylase": 3412,
      "##globin": 3413,
      "outs": 3414,
      "deazaguanine": 3415,
      "##ging": 3416,
      "ef1a": 3417,
      "inactive": 3418,
      "mhc": 3419,
      "sl": 3420,
      "round": 3421,
      "##igase": 3422,
      "nod": 3423,
      "arginosuc": 3424,
      "outside": 3425,
      "each": 3426,
      "##opeptidase": 3427,
      "##38": 3428,
      "catabol": 3429,
      "soluble": 3430,
      "##ara": 3431,
      "##frase": 3432,
      "bs16": 3433,
      "last": 3434,
      "##respond": 3435,
      "correspond": 3436,
      "intra": 3437,
      "lipop": 3438,
      "chemot": 3439,
      "pul": 3440,
      "##aden": 3441,
      "rotary": 3442,
      "##onase": 3443,
      "upf07": 3444,
      "mease": 3445,
      "knot": 3446,
      "trypsin": 3447,
      "formate": 3448,
      "suppress": 3449,
      "threonylcarb": 3450,
      "action": 3451,
      "##agon": 3452,
      "##mide": 3453,
      "introduc": 3454,
      "length": 3455,
      "##antetheine": 3456,
      "##mmet": 3457,
      "bifunctional": 3458,
      "adenylyl": 3459,
      "organism": 3460,
      "chromosomal": 3461,
      "crispr": 3462,
      "tsad": 3463,
      "dxp": 3464,
      "us9": 3465,
      "coordin": 3466,
      "sdr": 3467,
      "though": 3468,
      "elp3": 3469,
      "oligos": 3470,
      "fork": 3471,
      "permease": 3472,
      "sk": 3473,
      "pua": 3474,
      "native": 3475,
      "epimerase": 3476,
      "causes": 3477,
      "ispd": 3478,
      "##thanolamine": 3479,
      "##uvyl": 3480,
      "##lish": 3481,
      "cascad": 3482,
      "##hex": 3483,
      "##lex": 3484,
      "##ranilate": 3485,
      "mito": 3486,
      "histidine": 3487,
      "suc": 3488,
      "##totic": 3489,
      "##ablish": 3490,
      "fm": 3491,
      "general": 3492,
      "threonylcarbamoyl": 3493,
      "##tives": 3494,
      "phosphatidylinositol": 3495,
      "embryonic": 3496,
      "remain": 3497,
      "##ilon": 3498,
      "based": 3499,
      "coat": 3500,
      "m1g": 3501,
      "chemo": 3502,
      "sin": 3503,
      "therefore": 3504,
      "##atter": 3505,
      "corresponding": 3506,
      "ester": 3507,
      "ger": 3508,
      "25": 3509,
      "adapter": 3510,
      "##glu": 3511,
      "inducing": 3512,
      "isoform": 3513,
      "##cted": 3514,
      "##com": 3515,
      "spac": 3516,
      "brain": 3517,
      "commit": 3518,
      "hexapep": 3519,
      "epsilon": 3520,
      "netw": 3521,
      "ifn": 3522,
      "miaa": 3523,
      "##ract": 3524,
      "uridylate": 3525,
      "kinesin": 3526,
      "morphogenesis": 3527,
      "##inds": 3528,
      "hc": 3529,
      "cytokin": 3530,
      "##amination": 3531,
      "collagen": 3532,
      "fggy": 3533,
      "##ola": 3534,
      "##rotrans": 3535,
      "ster": 3536,
      "releases": 3537,
      "alterna": 3538,
      "polyubiquitin": 3539,
      "establish": 3540,
      "depend": 3541,
      "##nk": 3542,
      "##pes": 3543,
      "##lr": 3544,
      "smpb": 3545,
      "tetrahydro": 3546,
      "crucial": 3547,
      "dehydroqu": 3548,
      "anthranilate": 3549,
      "##ise": 3550,
      "##rophyll": 3551,
      "occur": 3552,
      "resolves": 3553,
      "facilitate": 3554,
      "dephosphorylation": 3555,
      "kinases": 3556,
      "saicar": 3557,
      "s5": 3558,
      "ability": 3559,
      "lower": 3560,
      "##enzo": 3561,
      "atpases": 3562,
      "codon": 3563,
      "canon": 3564,
      "accuracy": 3565,
      "rmlc": 3566,
      "##amn": 3567,
      "clathrin": 3568,
      "hydroxyacyl": 3569,
      "phy": 3570,
      "ix": 3571,
      "backb": 3572,
      "den": 3573,
      "efficiency": 3574,
      "septin": 3575,
      "antenna": 3576,
      "converting": 3577,
      "dal": 3578,
      "fa": 3579,
      "bl20": 3580,
      "phospholipase": 3581,
      "modulate": 3582,
      "makes": 3583,
      "secondary": 3584,
      "dinucle": 3585,
      "recruited": 3586,
      "fmt": 3587,
      "tumor": 3588,
      "##osition": 3589,
      "sr": 3590,
      "plp": 3591,
      "very": 3592,
      "secreted": 3593,
      "linking": 3594,
      "mar": 3595,
      "sequences": 3596,
      "##rtase": 3597,
      "absen": 3598,
      "gab": 3599,
      "ef1b": 3600,
      "ribonucleoprotein": 3601,
      "ipp": 3602,
      "murc": 3603,
      "until": 3604,
      "cholesterol": 3605,
      "26": 3606,
      "cn": 3607,
      "ras": 3608,
      "##33": 3609,
      "photo": 3610,
      "enolpyruvyl": 3611,
      "##ology": 3612,
      "nucleosome": 3613,
      "initial": 3614,
      "tre": 3615,
      "reduces": 3616,
      "bz": 3617,
      "bridges": 3618,
      "sperm": 3619,
      "im": 3620,
      "gi": 3621,
      "##lin": 3622,
      "variety": 3623,
      "fbp": 3624,
      "##aph": 3625,
      "##mical": 3626,
      "##ogluc": 3627,
      "queu": 3628,
      "cur": 3629,
      "ank": 3630,
      "need": 3631,
      "##renoid": 3632,
      "hyper": 3633,
      "##ido": 3634,
      "muc": 3635,
      "mitosis": 3636,
      "canonical": 3637,
      "equ": 3638,
      "snake": 3639,
      "pyrophosphor": 3640,
      "dock": 3641,
      "##ents": 3642,
      "uroporphyrinogen": 3643,
      "generated": 3644,
      "##nd": 3645,
      "sial": 3646,
      "flavo": 3647,
      "##oglut": 3648,
      "methionyl": 3649,
      "sensor": 3650,
      "homoserine": 3651,
      "##erc": 3652,
      "hexamer": 3653,
      "##arily": 3654,
      "##oa": 3655,
      "ribonuclease": 3656,
      "pas": 3657,
      "selen": 3658,
      "##acterial": 3659,
      "thought": 3660,
      "hem": 3661,
      "##ptophan": 3662,
      "bp": 3663,
      "ls": 3664,
      "human": 3665,
      "recruits": 3666,
      "budding": 3667,
      "encaps": 3668,
      "crot": 3669,
      "##ressed": 3670,
      "photosynth": 3671,
      "backbone": 3672,
      "cup": 3673,
      "towards": 3674,
      "spor": 3675,
      "##ance": 3676,
      "rescu": 3677,
      "physiological": 3678,
      "moly": 3679,
      "fas": 3680,
      "50": 3681,
      "um": 3682,
      "##anoyl": 3683,
      "hh": 3684,
      "seryl": 3685,
      "porph": 3686,
      "micro": 3687,
      "fes": 3688,
      "s12": 3689,
      "tp53": 3690,
      "takes": 3691,
      "compart": 3692,
      "motility": 3693,
      "decrease": 3694,
      "positioning": 3695,
      "cyclohydrolase": 3696,
      "triose": 3697,
      "myosin": 3698,
      "glycoside": 3699,
      "conserved": 3700,
      "seed": 3701,
      "allowing": 3702,
      "##mon": 3703,
      "##h1": 3704,
      "aut": 3705,
      "bu": 3706,
      "clea": 3707,
      "quea": 3708,
      "absence": 3709,
      "pectin": 3710,
      "without": 3711,
      "##tivity": 3712,
      "glycero": 3713,
      "tissue": 3714,
      "ant": 3715,
      "dend": 3716,
      "subset": 3717,
      "initiates": 3718,
      "metabolic": 3719,
      "##prot": 3720,
      "rimm": 3721,
      "accumulation": 3722,
      "preprotein": 3723,
      "bl36": 3724,
      "primarily": 3725,
      "distin": 3726,
      "cognate": 3727,
      "##oglo": 3728,
      "helices": 3729,
      "phosphoribosyl": 3730,
      "chy": 3731,
      "gsu": 3732,
      "oxidized": 3733,
      "correctly": 3734,
      "mraz": 3735,
      "plait": 3736,
      "lpx": 3737,
      "lpxa": 3738,
      "tryptophan": 3739,
      "az": 3740,
      "protection": 3741,
      "##ture": 3742,
      "metall": 3743,
      "drives": 3744,
      "galactose": 3745,
      "p53": 3746,
      "##membraneous": 3747,
      "ib": 3748,
      "switch": 3749,
      "cmp": 3750,
      "contra": 3751,
      "cardi": 3752,
      "extramembraneous": 3753,
      "##igna": 3754,
      "results": 3755,
      "carbamoyltrfase": 3756,
      "hyp": 3757,
      "cmn": 3758,
      "cmnm": 3759,
      "coli": 3760,
      "##rim": 3761,
      "nusb": 3762,
      "cx": 3763,
      "proteasomal": 3764,
      "dp": 3765,
      "deamination": 3766,
      "endothelial": 3767,
      "additional": 3768,
      "det": 3769,
      "forks": 3770,
      "##transfer": 3771,
      "##app": 3772,
      "prors": 3773,
      "increasing": 3774,
      "archaeal": 3775,
      "character": 3776,
      "direction": 3777,
      "confers": 3778,
      "hydroph": 3779,
      "22": 3780,
      "##oglutarate": 3781,
      "oligo": 3782,
      "effects": 3783,
      "atoms": 3784,
      "asparag": 3785,
      "ornithine": 3786,
      "##pect": 3787,
      "gata": 3788,
      "operons": 3789,
      "hydroxymethyl": 3790,
      "h4": 3791,
      "##entanoate": 3792,
      "intron": 3793,
      "conduc": 3794,
      "gtp1": 3795,
      "order": 3796,
      "rlmn": 3797,
      "ace": 3798,
      "fungal": 3799,
      "##rogen": 3800,
      "##ality": 3801,
      "being": 3802,
      "##rypsin": 3803,
      "btb": 3804,
      "##nc": 3805,
      "distinct": 3806,
      "myc": 3807,
      "mischarged": 3808,
      "ul18": 3809,
      "##perox": 3810,
      "##ured": 3811,
      "proteolytic": 3812,
      "catalase": 3813,
      "pii": 3814,
      "anion": 3815,
      "begin": 3816,
      "chymot": 3817,
      "##obi": 3818,
      "induce": 3819,
      "potent": 3820,
      "chymotrypsin": 3821,
      "consists": 3822,
      "##glycin": 3823,
      "##accharides": 3824,
      "avoid": 3825,
      "##enal": 3826,
      "mitotic": 3827,
      "lipopoly": 3828,
      "##sc": 3829,
      "cps": 3830,
      "##ibility": 3831,
      "carboxylate": 3832,
      "casp": 3833,
      "sorting": 3834,
      "beginning": 3835,
      "##iaz": 3836,
      "influenz": 3837,
      "possesses": 3838,
      "nrdr": 3839,
      "csu": 3840,
      "glycosylase": 3841,
      "deco": 3842,
      "##argeted": 3843,
      "##tal": 3844,
      "acps": 3845,
      "result": 3846,
      "deriva": 3847,
      "##acetone": 3848,
      "sequential": 3849,
      "silen": 3850,
      "galact": 3851,
      "##gpp": 3852,
      "2fe": 3853,
      "aldol": 3854,
      "##moyl": 3855,
      "derivatives": 3856,
      "##5u": 3857,
      "##enom": 3858,
      "yqgf": 3859,
      "stere": 3860,
      "##fc": 3861,
      "selective": 3862,
      "cdk": 3863,
      "junc": 3864,
      "dihydroxyacetone": 3865,
      "network": 3866,
      "lam": 3867,
      "range": 3868,
      "##ss": 3869,
      "ribosyl": 3870,
      "ssdna": 3871,
      "quinone": 3872,
      "abst": 3873,
      "moc": 3874,
      "molybd": 3875,
      "transdc": 3876,
      "undergoes": 3877,
      "##f3": 3878,
      "##vation": 3879,
      "##obut": 3880,
      "##iso": 3881,
      "##motic": 3882,
      "##cin": 3883,
      "intermediates": 3884,
      "secy": 3885,
      "conotoxin": 3886,
      "facilitator": 3887,
      "ptd": 3888,
      "##rd": 3889,
      "##ilic": 3890,
      "##tx": 3891,
      "yeip": 3892,
      "##viridae": 3893,
      "##irna": 3894,
      "polyprotein": 3895,
      "carboxylase": 3896,
      "kari": 3897,
      "lipoproteins": 3898,
      "##yle": 3899,
      "bases": 3900,
      "rescue": 3901,
      "kdp": 3902,
      "excitation": 3903,
      "self": 3904,
      "charge": 3905,
      "fully": 3906,
      "##ded": 3907,
      "flagel": 3908,
      "fra": 3909,
      "capping": 3910,
      "pres": 3911,
      "rnp": 3912,
      "hemoglobin": 3913,
      "bs21": 3914,
      "scan": 3915,
      "selection": 3916,
      "mannose": 3917,
      "putative": 3918,
      "bl32": 3919,
      "##56": 3920,
      "##latase": 3921,
      "##eck": 3922,
      "designa": 3923,
      "herpes": 3924,
      "endosomal": 3925,
      "methylth": 3926,
      "positively": 3927,
      "lum": 3928,
      "subdomain": 3929,
      "##eta": 3930,
      "enolpyruvate": 3931,
      "alkal": 3932,
      "h3k": 3933,
      "designated": 3934,
      "yc": 3935,
      "dest": 3936,
      "l20": 3937,
      "gran": 3938,
      "hisrs": 3939,
      "##timate": 3940,
      "2s": 3941,
      "##lavin": 3942,
      "due": 3943,
      "transptr": 3944,
      "hf": 3945,
      "trim": 3946,
      "filaments": 3947,
      "dnal": 3948,
      "dnaligase": 3949,
      "salv": 3950,
      "indirectly": 3951,
      "own": 3952,
      "##ying": 3953,
      "##muramoyl": 3954,
      "l1": 3955,
      "mp": 3956,
      "clock": 3957,
      "sphing": 3958,
      "tata": 3959,
      "cit": 3960,
      "importer": 3961,
      "rpoc": 3962,
      "immunoglo": 3963,
      "diacylglycerol": 3964,
      "chemotax": 3965,
      "silencing": 3966,
      "##ho": 3967,
      "ferroche": 3968,
      "##though": 3969,
      "although": 3970,
      "translocase": 3971,
      "##ogenic": 3972,
      "ankyrin": 3973,
      "immunoglobulin": 3974,
      "##c2": 3975,
      "half": 3976,
      "hollid": 3977,
      "holliday": 3978,
      "cadher": 3979,
      "concentrations": 3980,
      "pig": 3981,
      "##olin": 3982,
      "##46": 3983,
      "isoprenoid": 3984,
      "hydrophob": 3985,
      "##ocapsid": 3986,
      "copro": 3987,
      "along": 3988,
      "bl27": 3989,
      "unw": 3990,
      "##ils": 3991,
      "##mission": 3992,
      "thioester": 3993,
      "cii": 3994,
      "convert": 3995,
      "antagon": 3996,
      "aicar": 3997,
      "glyclase": 3998,
      "roles": 3999,
      "su1": 4000,
      "controlling": 4001,
      "reverse": 4002,
      "cyst": 4003,
      "clusters": 4004,
      "##otrop": 4005,
      "##imi": 4006,
      "##ually": 4007,
      "irre": 4008,
      "salvage": 4009,
      "##ylamine": 4010,
      "##def": 4011,
      "h2b": 4012,
      "bio": 4013,
      "elimination": 4014,
      "abstract": 4015,
      "lipopolysaccharide": 4016,
      "venom": 4017,
      "physical": 4018,
      "pred": 4019,
      "sua": 4020,
      "sensi": 4021,
      "ah": 4022,
      "external": 4023,
      "ass": 4024,
      "lipase": 4025,
      "##imelate": 4026,
      "preq1": 4027,
      "sterol": 4028,
      "rapz": 4029,
      "bs20": 4030,
      "endogenous": 4031,
      "conjugating": 4032,
      "photosynthetic": 4033,
      "independently": 4034,
      "dala": 4035,
      "##ocysteine": 4036,
      "##line": 4037,
      "rnr": 4038,
      "phosphodiester": 4039,
      "##ylamin": 4040,
      "participate": 4041,
      "##glutam": 4042,
      "tetrahydrofolate": 4043,
      "dissociation": 4044,
      "ml": 4045,
      "pls": 4046,
      "yig": 4047,
      "tol": 4048,
      "check": 4049,
      "once": 4050,
      "arf": 4051,
      "40": 4052,
      "quality": 4053,
      "cut": 4054,
      "optimi": 4055,
      "integration": 4056,
      "trpb": 4057,
      "quef": 4058,
      "pi3": 4059,
      "giy": 4060,
      "##wever": 4061,
      "however": 4062,
      "viruses": 4063,
      "initially": 4064,
      "phosphoro": 4065,
      "pantoate": 4066,
      "phage": 4067,
      "##ube": 4068,
      "##oacetate": 4069,
      "tpp": 4070,
      "hydrophobic": 4071,
      "spt": 4072,
      "fact": 4073,
      "pyrophosphoryl": 4074,
      "chemotaxis": 4075,
      "##rocy": 4076,
      "sho": 4077,
      "dapb": 4078,
      "rearrangement": 4079,
      "methylthio": 4080,
      "thic": 4081,
      "opening": 4082,
      "ndk": 4083,
      "demeth": 4084,
      "targeted": 4085,
      "##mito": 4086,
      "phosphop": 4087,
      "infected": 4088,
      "##anase": 4089,
      "fam3": 4090,
      "crotonase": 4091,
      "aba": 4092,
      "nucleic": 4093,
      "##elin": 4094,
      "wra": 4095,
      "isoase": 4096,
      "##cre": 4097,
      "secretory": 4098,
      "flavin": 4099,
      "macrophages": 4100,
      "g1": 4101,
      "limiting": 4102,
      "##ically": 4103,
      "toprim": 4104,
      "close": 4105,
      "##bp1": 4106,
      "sept": 4107,
      "geranyl": 4108,
      "##jac": 4109,
      "same": 4110,
      "##self": 4111,
      "msh": 4112,
      "##32": 4113,
      "directed": 4114,
      "conco": 4115,
      "concomit": 4116,
      "needed": 4117,
      "committed": 4118,
      "phosphoryl": 4119,
      "accelerate": 4120,
      "ferrochelatase": 4121,
      "##ili": 4122,
      "vps": 4123,
      "ver": 4124,
      "##ist": 4125,
      "##ual": 4126,
      "serpin": 4127,
      "##kda": 4128,
      "enab": 4129,
      "##pi": 4130,
      "integral": 4131,
      "##using": 4132,
      "uns": 4133,
      "directs": 4134,
      "##oflavin": 4135,
      "trip": 4136,
      "##entenyl": 4137,
      "kera": 4138,
      "##point": 4139,
      "gs": 4140,
      "fb": 4141,
      "inactivation": 4142,
      "##oring": 4143,
      "pq": 4144,
      "modulation": 4145,
      "phospholipids": 4146,
      "##isovalerate": 4147,
      "cdp": 4148,
      "xanth": 4149,
      "space": 4150,
      "oxal": 4151,
      "endoribonuclease": 4152,
      "##fam": 4153,
      "neural": 4154,
      "itself": 4155,
      "protube": 4156,
      "driving": 4157,
      "chemokine": 4158,
      "protuberance": 4159,
      "##terior": 4160,
      "biological": 4161,
      "##iazole": 4162,
      "diaminopimelate": 4163,
      "pulling": 4164,
      "##44": 4165,
      "##omy": 4166,
      "##omes": 4167,
      "pic": 4168,
      "mcm": 4169,
      "cascade": 4170,
      "fk": 4171,
      "carboxylation": 4172,
      "tme": 4173,
      "adenosylmethion": 4174,
      "inse": 4175,
      "mopterin": 4176,
      "##4a": 4177,
      "##hom": 4178,
      "##amidation": 4179,
      "carbohydrate": 4180,
      "modified": 4181,
      "acetylation": 4182,
      "flavoprotein": 4183,
      "yebc": 4184,
      "cross": 4185,
      "pgluconate": 4186,
      "##rins": 4187,
      "neurotoxin": 4188,
      "cryst": 4189,
      "##p2": 4190,
      "##s1": 4191,
      "irreversible": 4192,
      "##anese": 4193,
      "##genesis": 4194,
      "myo": 4195,
      "pra": 4196,
      "transald": 4197,
      "purl": 4198,
      "mam": 4199,
      "dendritic": 4200,
      "chloride": 4201,
      "polymerization": 4202,
      "##cadian": 4203,
      "circadian": 4204,
      "##x1": 4205,
      "##tis": 4206,
      "##ilization": 4207,
      "##ata": 4208,
      "##quinol": 4209,
      "bl34": 4210,
      "transaldolase": 4211,
      "methylase": 4212,
      "##aving": 4213,
      "mgs": 4214,
      "transcripts": 4215,
      "processive": 4216,
      "kinet": 4217,
      "brct": 4218,
      "events": 4219,
      "ssra": 4220,
      "playing": 4221,
      "lesions": 4222,
      "##tus": 4223,
      "transient": 4224,
      "accom": 4225,
      "finally": 4226,
      "methylene": 4227,
      "29": 4228,
      "upf03": 4229,
      "##rous": 4230,
      "cadherin": 4231,
      "##ather": 4232,
      "stimulation": 4233,
      "natu": 4234,
      "mechanistic": 4235,
      "natural": 4236,
      "##isome": 4237,
      "lysophosphatid": 4238,
      "##mag": 4239,
      "rhodanese": 4240,
      "keratin": 4241,
      "nucleocapsid": 4242,
      "plasmid": 4243,
      "rhamn": 4244,
      "##ores": 4245,
      "##omeric": 4246,
      "40s": 4247,
      "##3a": 4248,
      "tfi": 4249,
      "thiolation": 4250,
      "hexapeptide": 4251,
      "sim": 4252,
      "formylmethion": 4253,
      "oste": 4254,
      "cin": 4255,
      "metabolite": 4256,
      "##guan": 4257,
      "contribute": 4258,
      "male": 4259,
      "fragment": 4260,
      "uba": 4261,
      "octano": 4262,
      "##lay": 4263,
      "##tinal": 4264,
      "cytb": 4265,
      "encapsid": 4266,
      "ribo": 4267,
      "phenyla": 4268,
      "wide": 4269,
      "deah": 4270,
      "fibrin": 4271,
      "correct": 4272,
      "patter": 4273,
      "photonic": 4274,
      "docking": 4275,
      "nav": 4276,
      "murcdef": 4277,
      "help": 4278,
      "##rt": 4279,
      "oric": 4280,
      "d1": 4281,
      "htp": 4282,
      "riboflavin": 4283,
      "cargo": 4284,
      "dapa": 4285,
      "less": 4286,
      "coactiv": 4287,
      "increased": 4288,
      "steroid": 4289,
      "sure": 4290,
      "mdm": 4291,
      "thymidine": 4292,
      "##nin": 4293,
      "##xt": 4294,
      "kinetoch": 4295,
      "##ylating": 4296,
      "apoptotic": 4297,
      "##enol": 4298,
      "transports": 4299,
      "sign": 4300,
      "##arboxylate": 4301,
      "guanosine": 4302,
      "diphosph": 4303,
      "intes": 4304,
      "coq": 4305,
      "##onucleotide": 4306,
      "prior": 4307,
      "formylmethionyl": 4308,
      "membr": 4309,
      "adenylation": 4310,
      "curr": 4311,
      "##yrate": 4312,
      "moac": 4313,
      "lay": 4314,
      "##ultaneous": 4315,
      "aspartic": 4316,
      "simultaneous": 4317,
      "vit": 4318,
      "oscp": 4319,
      "platelet": 4320,
      "su3": 4321,
      "pass": 4322,
      "ybey": 4323,
      "sha": 4324,
      "mtor": 4325,
      "##uting": 4326,
      "imidazole": 4327,
      "rbd": 4328,
      "transmission": 4329,
      "grp": 4330,
      "ims": 4331,
      "utp": 4332,
      "##oic": 4333,
      "adjac": 4334,
      "surround": 4335,
      "adjacent": 4336,
      "6p": 4337,
      "camp": 4338,
      "dhap": 4339,
      "serve": 4340,
      "lu": 4341,
      "glycogen": 4342,
      "el18": 4343,
      "rather": 4344,
      "##ef": 4345,
      "inj": 4346,
      "endosomes": 4347,
      "dehydroquinate": 4348,
      "shape": 4349,
      "##rone": 4350,
      "sox": 4351,
      "##47": 4352,
      "##ensity": 4353,
      "dimethyl": 4354,
      "spermidine": 4355,
      "fkbp": 4356,
      "##45": 4357,
      "lps": 4358,
      "neurotrans": 4359,
      "organisms": 4360,
      "triosephosphate": 4361,
      "termini": 4362,
      "degraded": 4363,
      "acceptors": 4364,
      "exonuc": 4365,
      "maturase": 4366,
      "solute": 4367,
      "expan": 4368,
      "influenza": 4369,
      "pqq": 4370,
      "gcvt": 4371,
      "nop": 4372,
      "amidot": 4373,
      "##glutamate": 4374,
      "carbamoyltransf": 4375,
      "density": 4376,
      "unfolded": 4377,
      "turno": 4378,
      "change": 4379,
      "wing": 4380,
      "lack": 4381,
      "va": 4382,
      "##ired": 4383,
      "##ls": 4384,
      "polypr": 4385,
      "bala": 4386,
      "smo": 4387,
      "##rnp": 4388,
      "turnover": 4389,
      "phosphogluc": 4390,
      "isopentenyl": 4391,
      "xylulose": 4392,
      "queuine": 4393,
      "##ocitrate": 4394,
      "pex": 4395,
      "attached": 4396,
      "##ocyanin": 4397,
      "palmito": 4398,
      "m17": 4399,
      "telom": 4400,
      "##41": 4401,
      "matk": 4402,
      "guanido": 4403,
      "##rage": 4404,
      "##toisomerase": 4405,
      "reductoisomerase": 4406,
      "##tition": 4407,
      "ther": 4408,
      "fix": 4409,
      "accessory": 4410,
      "##g1": 4411,
      "minc": 4412,
      "pde": 4413,
      "methylp": 4414,
      "vii": 4415,
      "restric": 4416,
      "siro": 4417,
      "type1": 4418,
      "complement": 4419,
      "gap": 4420,
      "pdz": 4421,
      "finds": 4422,
      "ve": 4423,
      "glycolysis": 4424,
      "dehydrogenases": 4425,
      "time": 4426,
      "appara": 4427,
      "farnesyl": 4428,
      "##49": 4429,
      "erro": 4430,
      "##kinin": 4431,
      "apparatus": 4432,
      "termed": 4433,
      "wo": 4434,
      "##61": 4435,
      "inhibitory": 4436,
      "expressed": 4437,
      "spermat": 4438,
      "##obilin": 4439,
      "##urin": 4440,
      "dsb": 4441,
      "sialic": 4442,
      "##atp": 4443,
      "coordinated": 4444,
      "translocational": 4445,
      "protecting": 4446,
      "27": 4447,
      "nc": 4448,
      "p2": 4449,
      "leuc": 4450,
      "som": 4451,
      "revers": 4452,
      "sdh": 4453,
      "coactivator": 4454,
      "metfrase": 4455,
      "##yri": 4456,
      "rod": 4457,
      "term": 4458,
      "trmd": 4459,
      "##ites": 4460,
      "modulating": 4461,
      "flagell": 4462,
      "methylenetetrahydrofolate": 4463,
      "fn3": 4464,
      "causing": 4465,
      "introduces": 4466,
      "a37": 4467,
      "phenylalan": 4468,
      "stabilizing": 4469,
      "2nd": 4470,
      "acidic": 4471,
      "releasing": 4472,
      "sand": 4473,
      "##enate": 4474,
      "##ae1": 4475,
      "s2": 4476,
      "purines": 4477,
      "rt": 4478,
      "##abc": 4479,
      "##402": 4480,
      "dynamic": 4481,
      "sos": 4482,
      "ka": 4483,
      "oxaloacetate": 4484,
      "cpl": 4485,
      "member": 4486,
      "bc": 4487,
      "rbsml": 4488,
      "porphobilin": 4489,
      "tmem": 4490,
      "clps": 4491,
      "##pera": 4492,
      "ctd": 4493,
      "##rinsic": 4494,
      "rcmb": 4495,
      "##alamin": 4496,
      "##l2": 4497,
      "rna3": 4498,
      "##ike": 4499,
      "endosome": 4500,
      "muta": 4501,
      "strands": 4502,
      "mrp": 4503,
      "ano": 4504,
      "##mature": 4505,
      "##oleucine": 4506,
      "ferr": 4507,
      "nicotin": 4508,
      "##dip": 4509,
      "##serine": 4510,
      "m24": 4511,
      "##rnas": 4512,
      "tether": 4513,
      "cpp": 4514,
      "ae": 4515,
      "ev": 4516,
      "properties": 4517,
      "arginin": 4518,
      "smc": 4519,
      "ntp": 4520,
      "deoc": 4521,
      "since": 4522,
      "##magglut": 4523,
      "##assemb": 4524,
      "valine": 4525,
      "trapp": 4526,
      "adip": 4527,
      "cplx": 4528,
      "fabz": 4529,
      "thiol": 4530,
      "argininosuccinate": 4531,
      "pack": 4532,
      "##dg": 4533,
      "lipids": 4534,
      "gad": 4535,
      "connecting": 4536,
      "eb": 4537,
      "upstream": 4538,
      "establishment": 4539,
      "##cement": 4540,
      "cate": 4541,
      "hemagglut": 4542,
      "methylpentanoate": 4543,
      "stabilization": 4544,
      "pentose": 4545,
      "fpg": 4546,
      "transamidation": 4547,
      "premature": 4548,
      "autophag": 4549,
      "##icolinate": 4550,
      "##ynap": 4551,
      "deform": 4552,
      "##dipicolinate": 4553,
      "symmet": 4554,
      "case": 4555,
      "isoleucine": 4556,
      "transpos": 4557,
      "poz": 4558,
      "cleave": 4559,
      "murb": 4560,
      "tetrahydrodipicolinate": 4561,
      "another": 4562,
      "##ylethanolamine": 4563,
      "lysosomal": 4564,
      "assisting": 4565,
      "balance": 4566,
      "fd": 4567,
      "##31": 4568,
      "nickel": 4569,
      "ef2": 4570,
      "pin": 4571,
      "##iosis": 4572,
      "##tokinase": 4573,
      "mobile": 4574,
      "##ximal": 4575,
      "##ylic": 4576,
      "unc": 4577,
      "gag": 4578,
      "##67": 4579,
      "glyox": 4580,
      "##5a": 4581,
      "would": 4582,
      "smad": 4583,
      "alternative": 4584,
      "gaba": 4585,
      "cytotoxic": 4586,
      "heptose": 4587,
      "mec": 4588,
      "##male": 4589,
      "gpi": 4590,
      "##lasts": 4591,
      "pfk": 4592,
      "##asion": 4593,
      "citrate": 4594,
      "##alc": 4595,
      "systems": 4596,
      "jel": 4597,
      "point": 4598,
      "jelly": 4599,
      "##sf": 4600,
      "palp": 4601,
      "fbpase": 4602,
      "aminoacid": 4603,
      "layer": 4604,
      "bh": 4605,
      "require": 4606,
      "##sph": 4607,
      "psaa": 4608,
      "transcript": 4609,
      "mag": 4610,
      "thii": 4611,
      "prime": 4612,
      "contact": 4613,
      "cage": 4614,
      "dete": 4615,
      "methoxy": 4616,
      "##ceed": 4617,
      "arrest": 4618,
      "##phatic": 4619,
      "s13": 4620,
      "ferritin": 4621,
      "nk": 4622,
      "##ynaptic": 4623,
      "##i1": 4624,
      "men": 4625,
      "prf": 4626,
      "captures": 4627,
      "accommod": 4628,
      "kv": 4629,
      "##omin": 4630,
      "hiv": 4631,
      "##rf": 4632,
      "phag": 4633,
      "hisg": 4634,
      "cili": 4635,
      "ketoacyl": 4636,
      "##vt": 4637,
      "nano": 4638,
      "delivery": 4639,
      "##osure": 4640,
      "utilization": 4641,
      "##ycin": 4642,
      "ns1": 4643,
      "recombinase": 4644,
      "types": 4645,
      "##butanoate": 4646,
      "unsaturated": 4647,
      "angi": 4648,
      "fmet": 4649,
      "##tf": 4650,
      "##nl": 4651,
      "1a": 4652,
      "virions": 4653,
      "cobq": 4654,
      "pnp": 4655,
      "ali": 4656,
      "hold": 4657,
      "proposed": 4658,
      "photor": 4659,
      "drug": 4660,
      "##ust": 4661,
      "higher": 4662,
      "fgam": 4663,
      "dol": 4664,
      "excision": 4665,
      "glmu": 4666,
      "coun": 4667,
      "rece": 4668,
      "nec": 4669,
      "accurate": 4670,
      "scf": 4671,
      "blocking": 4672,
      "deubiquitin": 4673,
      "affec": 4674,
      "defens": 4675,
      "chitin": 4676,
      "aceglu": 4677,
      "kcn": 4678,
      "spect": 4679,
      "proceed": 4680,
      "glucan": 4681,
      "dcmp": 4682,
      "optimized": 4683,
      "rbp": 4684,
      "rev": 4685,
      "mura": 4686,
      "thiazole": 4687,
      "encapsulation": 4688,
      "homo": 4689,
      "63": 4690,
      "##51": 4691,
      "##phagy": 4692,
      "acetylcholine": 4693,
      "igp": 4694,
      "mnme": 4695,
      "arabinose": 4696,
      "##yp": 4697,
      "##ex": 4698,
      "serving": 4699,
      "reversibly": 4700,
      "bpg": 4701,
      "oligonucleotides": 4702,
      "##gn": 4703,
      "##ged": 4704,
      "enhancing": 4705,
      "hiii": 4706,
      "spontaneously": 4707,
      "strongly": 4708,
      "combin": 4709,
      "caspase": 4710,
      "cox": 4711,
      "vascular": 4712,
      "bnc": 4713,
      "storage": 4714,
      "adenosylmethionine": 4715,
      "catabolism": 4716,
      "signific": 4717,
      "particular": 4718,
      "junctions": 4719,
      "##r2": 4720,
      "##oster": 4721,
      "asc": 4722,
      "##ivir": 4723,
      "chlorophyll": 4724,
      "##lated": 4725,
      "##odi": 4726,
      "meso": 4727,
      "members": 4728,
      "##vous": 4729,
      "##coa": 4730,
      "glucos": 4731,
      "nervous": 4732,
      "incom": 4733,
      "nucleotidase": 4734,
      "trop": 4735,
      "recruiting": 4736,
      "repla": 4737,
      "mure": 4738,
      "inflammation": 4739,
      "polyrib": 4740,
      "flagellar": 4741,
      "misfolded": 4742,
      "covalently": 4743,
      "antibiotic": 4744,
      "assembles": 4745,
      "methylg": 4746,
      "dg": 4747,
      "transduc": 4748,
      "ybab": 4749,
      "glycolipid": 4750,
      "detox": 4751,
      "modifications": 4752,
      "conducting": 4753,
      "moaa": 4754,
      "kae1": 4755,
      "eif2": 4756,
      "suf": 4757,
      "##ird": 4758,
      "##42": 4759,
      "l11": 4760,
      "guanylate": 4761,
      "carboxykinase": 4762,
      "ni": 4763,
      "##oase": 4764,
      "desatu": 4765,
      "duplex": 4766,
      "##ked": 4767,
      "seen": 4768,
      "##bl": 4769,
      "air": 4770,
      "##ocal": 4771,
      "preatp": 4772,
      "whereas": 4773,
      "aliphatic": 4774,
      "bone": 4775,
      "gf": 4776,
      "root": 4777,
      "##imel": 4778,
      "##oids": 4779,
      "phos": 4780,
      "##d2": 4781,
      "giv": 4782,
      "progen": 4783,
      "glutaminyl": 4784,
      "snf2": 4785,
      "##alcone": 4786,
      "accep": 4787,
      "internalization": 4788,
      "hsp90": 4789,
      "checkpoint": 4790,
      "sar": 4791,
      "bzip": 4792,
      "##thenate": 4793,
      "attack": 4794,
      "removing": 4795,
      "antibacterial": 4796,
      "##ultimate": 4797,
      "antitoxin": 4798,
      "feed": 4799,
      "penultimate": 4800,
      "dalr": 4801,
      "##n1": 4802,
      "dinucleotide": 4803,
      "intrinsic": 4804,
      "maintains": 4805,
      "##avirus": 4806,
      "links": 4807,
      "subdom": 4808,
      "tlr": 4809,
      "##oh": 4810,
      "##gp": 4811,
      "fr": 4812,
      "intersubunit": 4813,
      "blocked": 4814,
      "##ylat": 4815,
      "shmt": 4816,
      "##yclic": 4817,
      "adenylat": 4818,
      "anticd": 4819,
      "##asp": 4820,
      "notch": 4821,
      "starvation": 4822,
      "anhydro": 4823,
      "possible": 4824,
      "methenyl": 4825,
      "h1": 4826,
      "leua": 4827,
      "##aging": 4828,
      "morphology": 4829,
      "2b": 4830,
      "c5": 4831,
      "cann": 4832,
      "##ylaminomethyl": 4833,
      "raf": 4834,
      "zap": 4835,
      "##iled": 4836,
      "octanoyl": 4837,
      "oxoglutarate": 4838,
      "rsmh": 4839,
      "c6": 4840,
      "conse": 4841,
      "toxicity": 4842,
      "papain": 4843,
      "polys": 4844,
      "gy": 4845,
      "dtd": 4846,
      "nagb": 4847,
      "accessibility": 4848,
      "depending": 4849,
      "##thy": 4850,
      "rest": 4851,
      "scn": 4852,
      "concomitant": 4853,
      "##penoid": 4854,
      "diff": 4855,
      "##bility": 4856,
      "nuo": 4857,
      "transcrib": 4858,
      "taf": 4859,
      "hslu": 4860,
      "mad": 4861,
      "adr": 4862,
      "auxin": 4863,
      "##haem": 4864,
      "cytidylate": 4865,
      "antitermin": 4866,
      "off": 4867,
      "rsmb": 4868,
      "32": 4869,
      "skelet": 4870,
      "pantothenate": 4871,
      "uvrabc": 4872,
      "join": 4873,
      "##peroxide": 4874,
      "nut": 4875,
      "##orb": 4876,
      "dioxide": 4877,
      "cupin": 4878,
      "sd": 4879,
      "peptidyltransferase": 4880,
      "pet": 4881,
      "leud": 4882,
      "meiosis": 4883,
      "conferring": 4884,
      "smooth": 4885,
      "##omers": 4886,
      "efts": 4887,
      "apc": 4888,
      "exporter": 4889,
      "polyprenyl": 4890,
      "liver": 4891,
      "photons": 4892,
      "glycerald": 4893,
      "cleaved": 4894,
      "5p": 4895,
      "enter": 4896,
      "dissociate": 4897,
      "predomin": 4898,
      "bcl": 4899,
      "reactive": 4900,
      "cd4": 4901,
      "##olysis": 4902,
      "assist": 4903,
      "zip": 4904,
      "##els": 4905,
      "##ionate": 4906,
      "growing": 4907,
      "tbp": 4908,
      "##osterol": 4909,
      "glucone": 4910,
      "##heme": 4911,
      "crystall": 4912,
      "liga": 4913,
      "defensin": 4914,
      "rpoa": 4915,
      "dd": 4916,
      "adenylosucc": 4917,
      "##ft": 4918,
      "##vd": 4919,
      "amido": 4920,
      "trmb": 4921,
      "snrnp": 4922,
      "gast": 4923,
      "##ocytic": 4924,
      "third": 4925,
      "##riction": 4926,
      "breaks": 4927,
      "##97": 4928,
      "##idic": 4929,
      "methenyltetrahydrofolate": 4930,
      "hip": 4931,
      "alg": 4932,
      "nutri": 4933,
      "##lv": 4934,
      "anae": 4935,
      "##ida": 4936,
      "denat": 4937,
      "##iol": 4938,
      "cytidylyl": 4939,
      "vitamin": 4940,
      "49": 4941,
      "tca": 4942,
      "oxog": 4943,
      "permeability": 4944,
      "mdh": 4945,
      "hydroxyglut": 4946,
      "phsph": 4947,
      "p1": 4948,
      "oxide": 4949,
      "##ced": 4950,
      "unfold": 4951,
      "germ": 4952,
      "dag": 4953,
      "init": 4954,
      "##land": 4955,
      "retinal": 4956,
      "hhh": 4957,
      "chnl": 4958,
      "proceeds": 4959,
      "upf0758": 4960,
      "denatured": 4961,
      "##arin": 4962,
      "dtmp": 4963,
      "vw": 4964,
      "##philin": 4965,
      "primase": 4966,
      "##geranyl": 4967,
      "serrs": 4968,
      "contraction": 4969,
      "##ethyl": 4970,
      "##icin": 4971,
      "metalloprote": 4972,
      "hu": 4973,
      "ntn": 4974,
      "cona": 4975,
      "myb": 4976,
      "nrps": 4977,
      "##ider": 4978,
      "quinol": 4979,
      "itg": 4980,
      "inh": 4981,
      "##cessive": 4982,
      "sensing": 4983,
      "b1b": 4984,
      "regulators": 4985,
      "##lates": 4986,
      "##tidyl": 4987,
      "cotrans": 4988,
      "spliceosome": 4989,
      "##orn": 4990,
      "b4": 4991,
      "fs": 4992,
      "hept": 4993,
      "deacetylase": 4994,
      "##nn": 4995,
      "intermembrane": 4996,
      "synthesizes": 4997,
      "##olact": 4998,
      "adenylosuccin": 4999,
      "##quis": 5000,
      "fluoride": 5001,
      "c3": 5002,
      "##roll": 5003,
      "jellyroll": 5004,
      "sh2": 5005,
      "##rite": 5006,
      "phosphorolysis": 5007,
      "leucine": 5008,
      "hype": 5009,
      "pox": 5010,
      "anchor": 5011,
      "cannot": 5012,
      "sch": 5013,
      "fu": 5014,
      "mine": 5015,
      "##rusion": 5016,
      "ribb": 5017,
      "dl": 5018,
      "substitu": 5019,
      "##yltr": 5020,
      "cina": 5021,
      "anaerobic": 5022,
      "units": 5023,
      "dump": 5024,
      "hrca": 5025,
      "##ati": 5026,
      "primer": 5027,
      "purq": 5028,
      "dimers": 5029,
      "hmp": 5030,
      "intermed": 5031,
      "##hal": 5032,
      "fre": 5033,
      "type2": 5034,
      "will": 5035,
      "pyrophosphatase": 5036,
      "identi": 5037,
      "enables": 5038,
      "##atalytic": 5039,
      "phspho": 5040,
      "##ared": 5041,
      "deformylase": 5042,
      "mecdp": 5043,
      "rra": 5044,
      "tes": 5045,
      "diverse": 5046,
      "stimulating": 5047,
      "dehydase": 5048,
      "utilizes": 5049,
      "ldl": 5050,
      "tole": 5051,
      "##ocytidyl": 5052,
      "diphosphocytidyl": 5053,
      "lsm": 5054,
      "dop": 5055,
      "##decase": 5056,
      "incorporated": 5057,
      "dn": 5058,
      "atg8": 5059,
      "uroc": 5060,
      "developmental": 5061,
      "##tant": 5062,
      "##chc": 5063,
      "##romer": 5064,
      "endo": 5065,
      "unk": 5066,
      "neurotransmit": 5067,
      "54": 5068,
      "aqu": 5069,
      "g6p": 5070,
      "##wise": 5071,
      "##oxid": 5072,
      "leaving": 5073,
      "deacase": 5074,
      "##cine": 5075,
      "##hf": 5076,
      "##ame": 5077,
      "cilia": 5078,
      "##ergic": 5079,
      "##98": 5080,
      "nh2": 5081,
      "simultaneously": 5082,
      "abc1": 5083,
      "flap": 5084,
      "stil": 5085,
      "disassemb": 5086,
      "manno": 5087,
      "multisubunit": 5088,
      "##rier": 5089,
      "prenyltrfase": 5090,
      "subty": 5091,
      "olf": 5092,
      "##mur": 5093,
      "those": 5094,
      "##tile": 5095,
      "skp1": 5096,
      "decreases": 5097,
      "fis": 5098,
      "##tently": 5099,
      "##amidine": 5100,
      "igps": 5101,
      "sub1": 5102,
      "lux": 5103,
      "##aila": 5104,
      "nucleosomes": 5105,
      "ppantetheine": 5106,
      "##ieties": 5107,
      "beh": 5108,
      "polypeptides": 5109,
      "heav": 5110,
      "initiate": 5111,
      "mip": 5112,
      "adaptive": 5113,
      "reversal": 5114,
      "accommodate": 5115,
      "neutral": 5116,
      "##aring": 5117,
      "rrf": 5118,
      "##2c": 5119,
      "##row": 5120,
      "thdp": 5121,
      "ompdecase": 5122,
      "lumen": 5123,
      "unknown": 5124,
      "rpb6": 5125,
      "urocanase": 5126,
      "chalcone": 5127,
      "dctp": 5128,
      "moieties": 5129,
      "centros": 5130,
      "6pg": 5131,
      "##odoxin": 5132,
      "lipoate": 5133,
      "surrounds": 5134,
      "aminopeptidase": 5135,
      "about": 5136,
      "vari": 5137,
      "##anto": 5138,
      "fibrinogen": 5139,
      "multif": 5140,
      "thiamin": 5141,
      "ispg": 5142,
      "prfar": 5143,
      "##vl": 5144,
      "##alene": 5145,
      "nach": 5146,
      "autoc": 5147,
      "##rog": 5148,
      "stimulate": 5149,
      "geranylgeranyl": 5150,
      "##hd": 5151,
      "nicot": 5152,
      "anchors": 5153,
      "##lec": 5154,
      "actively": 5155,
      "pancre": 5156,
      "subtil": 5157,
      "prpp": 5158,
      "cyclophilin": 5159,
      "greb": 5160,
      "eif4": 5161,
      "uprtase": 5162,
      "toxins": 5163,
      "aps": 5164,
      "ccr": 5165,
      "lymphocytes": 5166,
      "utr": 5167,
      "selectively": 5168,
      "trub": 5169,
      "proteob": 5170,
      "php": 5171,
      "leader": 5172,
      "remains": 5173,
      "aerobic": 5174,
      "cyano": 5175,
      "metabolites": 5176,
      "aspartyl": 5177,
      "extended": 5178,
      "##ations": 5179,
      "hydrolyzed": 5180,
      "efficiently": 5181,
      "bhlh": 5182,
      "60s": 5183,
      "##lusion": 5184,
      "##gins": 5185,
      "icos": 5186,
      "multifunctional": 5187,
      "beca": 5188,
      "suggesting": 5189,
      "because": 5190,
      "porin": 5191,
      "##itu": 5192,
      "##nat": 5193,
      "polysaccharide": 5194,
      "attaches": 5195,
      "motion": 5196,
      "conjugation": 5197,
      "tari": 5198,
      "ens": 5199,
      "phosphatidylserine": 5200,
      "pdease": 5201,
      "carboxymeth": 5202,
      "chit": 5203,
      "##yltran": 5204,
      "electroche": 5205,
      "nicks": 5206,
      "errors": 5207,
      "mainly": 5208,
      "subtilis": 5209,
      "pm": 5210,
      "##pecific": 5211,
      "electrochemical": 5212,
      "tight": 5213,
      "secb": 5214,
      "neutroph": 5215,
      "px": 5216,
      "##role": 5217,
      "counte": 5218,
      "deox": 5219,
      "suppressor": 5220,
      "##rescine": 5221,
      "h2th": 5222,
      "##osite": 5223,
      "tom": 5224,
      "2r": 5225,
      "##ld": 5226,
      "tolb": 5227,
      "inad": 5228,
      "hisz": 5229,
      "heavy": 5230,
      "gate": 5231,
      "##plex": 5232,
      "tric": 5233,
      "superco": 5234,
      "##rade": 5235,
      "prk": 5236,
      "twin": 5237,
      "aminoac": 5238,
      "##amers": 5239,
      "inadver": 5240,
      "benzo": 5241,
      "inadvertently": 5242,
      "permit": 5243,
      "cera": 5244,
      "slow": 5245,
      "s24": 5246,
      "##arase": 5247,
      "subfam": 5248,
      "loading": 5249,
      "##undant": 5250,
      "pab": 5251,
      "##resen": 5252,
      "aminomethyl": 5253,
      "succin": 5254,
      "rounds": 5255,
      "ygf": 5256,
      "packaging": 5257,
      "spry": 5258,
      "##ikimate": 5259,
      "posttransfer": 5260,
      "availa": 5261,
      "alkaline": 5262,
      "lon": 5263,
      "moderate": 5264,
      "linkage": 5265,
      "##shikimate": 5266,
      "disa": 5267,
      "glcn": 5268,
      "generates": 5269,
      "intestinal": 5270,
      "##des": 5271,
      "protect": 5272,
      "##osens": 5273,
      "vacuole": 5274,
      "angiogenesis": 5275,
      "fus": 5276,
      "fid": 5277,
      "##pc": 5278,
      "##edral": 5279,
      "##ap1": 5280,
      "cleaving": 5281,
      "phosphopantetheine": 5282,
      "mep": 5283,
      "##eg": 5284,
      "stra": 5285,
      "ruvab": 5286,
      "melan": 5287,
      "represen": 5288,
      "fumarase": 5289,
      "##obiotin": 5290,
      "##elity": 5291,
      "fidelity": 5292,
      "fav": 5293,
      "##ably": 5294,
      "##thiobiotin": 5295,
      "eif3": 5296,
      "dar": 5297,
      "hm": 5298,
      "t2": 5299,
      "##nts": 5300,
      "##adenosine": 5301,
      "##2b": 5302,
      "dethiobiotin": 5303,
      "dii": 5304,
      "provide": 5305,
      "incorrectly": 5306,
      "rfr": 5307,
      "icosah": 5308,
      "##genic": 5309,
      "##complex": 5310,
      "no2": 5311,
      "pnac": 5312,
      "5peptid": 5313,
      "pnacmuramoyl": 5314,
      "ce": 5315,
      "##cb": 5316,
      "coordinate": 5317,
      "dolich": 5318,
      "bilay": 5319,
      "lola": 5320,
      "dsrna": 5321,
      "m7": 5322,
      "vp2": 5323,
      "##d3": 5324,
      "##tex": 5325,
      "linkages": 5326,
      "structurally": 5327,
      "unit": 5328,
      "ribity": 5329,
      "hydroxylase": 5330,
      "dape": 5331,
      "holl": 5332,
      "module": 5333,
      "gdc": 5334,
      "##grade": 5335,
      "xylose": 5336,
      "environmental": 5337,
      "##rab": 5338,
      "myr": 5339,
      "tgs": 5340,
      "prma": 5341,
      "lar": 5342,
      "hete": 5343,
      "##f4": 5344,
      "rpia": 5345,
      "meiotic": 5346,
      "##aran": 5347,
      "##opo": 5348,
      "iscs": 5349,
      "##lysin": 5350,
      "lateral": 5351,
      "putrescine": 5352,
      "##irection": 5353,
      "cpsase": 5354,
      "##cob": 5355,
      "converter": 5356,
      "methylated": 5357,
      "pool": 5358,
      "ilers": 5359,
      "seg": 5360,
      "fucose": 5361,
      "##idirection": 5362,
      "tolerance": 5363,
      "paps": 5364,
      "sad": 5365,
      "##ovirus": 5366,
      "dist": 5367,
      "nicotinic": 5368,
      "isopropmal": 5369,
      "lol": 5370,
      "transglyc": 5371,
      "septum": 5372,
      "##a2": 5373,
      "##teg": 5374,
      "endod": 5375,
      "branching": 5376,
      "dmapp": 5377,
      "ddx": 5378,
      "xerc": 5379,
      "ketol": 5380,
      "dimerization": 5381,
      "asparaginyl": 5382,
      "kinetochore": 5383,
      "hor": 5384,
      "sir": 5385,
      "chromosomes": 5386,
      "hsp20": 5387,
      "edits": 5388,
      "creating": 5389,
      "rapidly": 5390,
      "el15": 5391,
      "drop": 5392,
      "nitrate": 5393,
      "common": 5394,
      "skin": 5395,
      "lysr": 5396,
      "##propri": 5397,
      "sup": 5398,
      "cam": 5399,
      "usually": 5400,
      "mechanistically": 5401,
      "##eller": 5402,
      "b5": 5403,
      "fx": 5404,
      "##e2": 5405,
      "##case": 5406,
      "proteolysis": 5407,
      "mannitol": 5408,
      "unwind": 5409,
      "##rocytes": 5410,
      "gluconeogenesis": 5411,
      "transcribed": 5412,
      "unst": 5413,
      "nucleoprotein": 5414,
      "mm": 5415,
      "cry": 5416,
      "g2": 5417,
      "hes": 5418,
      "##ributing": 5419,
      "ei": 5420,
      "##pf": 5421,
      "nqr": 5422,
      "hypox": 5423,
      "aux": 5424,
      "##glycer": 5425,
      "degrading": 5426,
      "acylphosphatase": 5427,
      "##obutyrate": 5428,
      "##fr": 5429,
      "transform": 5430,
      "exon": 5431,
      "impair": 5432,
      "##activation": 5433,
      "vacuolar": 5434,
      "murg": 5435,
      "sporulation": 5436,
      "amidohydro": 5437,
      "##zing": 5438,
      "mirna": 5439,
      "compartment": 5440,
      "nife": 5441,
      "pathogens": 5442,
      "nucleoph": 5443,
      "thymidate": 5444,
      "##69": 5445,
      "##sd": 5446,
      "telomere": 5447,
      "spermatogenesis": 5448,
      "48": 5449,
      "##aphase": 5450,
      "fgar": 5451,
      "ptdins": 5452,
      "##57": 5453,
      "aure": 5454,
      "##rose": 5455,
      "##orrin": 5456,
      "glycosylation": 5457,
      "precorrin": 5458,
      "ke": 5459,
      "entero": 5460,
      "lysosomes": 5461,
      "plc": 5462,
      "ref": 5463,
      "clpa": 5464,
      "reductive": 5465,
      "hrmn": 5466,
      "edd": 5467,
      "cos": 5468,
      "affects": 5469,
      "benz": 5470,
      "throm": 5471,
      "characterized": 5472,
      "38": 5473,
      "kc": 5474,
      "if1": 5475,
      "propeller": 5476,
      "axis": 5477,
      "trma": 5478,
      "##mob": 5479,
      "tram": 5480,
      "thrrs": 5481,
      "microbial": 5482,
      "organic": 5483,
      "give": 5484,
      "adds": 5485,
      "ilvd": 5486,
      "adenosylcob": 5487,
      "##idin": 5488,
      "shif": 5489,
      "responsive": 5490,
      "reductases": 5491,
      "prolyl": 5492,
      "frog": 5493,
      "lc": 5494,
      "invasion": 5495,
      "special": 5496,
      "##glycinamide": 5497,
      "kunit": 5498,
      "##rant": 5499,
      "prc": 5500,
      "topoisomerase": 5501,
      "buil": 5502,
      "kunitz": 5503,
      "kd": 5504,
      "##pb": 5505,
      "##umin": 5506,
      "carbamoyltransferase": 5507,
      "dph": 5508,
      "ldh": 5509,
      "squ": 5510,
      "bodies": 5511,
      "nat": 5512,
      "##quinase": 5513,
      "dhquinase": 5514,
      "she": 5515,
      "consisting": 5516,
      "peroxide": 5517,
      "ribonuc": 5518,
      "circ": 5519,
      "restriction": 5520,
      "##mbl": 5521,
      "fixation": 5522,
      "desaturase": 5523,
      "synthetic": 5524,
      "primers": 5525,
      "##ip1": 5526,
      "tcr": 5527,
      "##pel": 5528,
      "amidotrfase": 5529,
      "##nary": 5530,
      "##yth": 5531,
      "suppresses": 5532,
      "reduce": 5533,
      "phosphatidylethanolamine": 5534,
      "fungi": 5535,
      "ecf": 5536,
      "glycoproteins": 5537,
      "bic": 5538,
      "isocitrate": 5539,
      "ribonucz": 5540,
      "##tical": 5541,
      "histidase": 5542,
      "m48": 5543,
      "##illin": 5544,
      "ttca": 5545,
      "icosahedral": 5546,
      "thiouridine": 5547,
      "plants": 5548,
      "hydroxyethyl": 5549,
      "barrier": 5550,
      "##db": 5551,
      "##chl": 5552,
      "biof": 5553,
      "##700": 5554,
      "circular": 5555,
      "behav": 5556,
      "repressing": 5557,
      "##enes": 5558,
      "multiprotein": 5559,
      "##rh": 5560,
      "##phenyl": 5561,
      "nerve": 5562,
      "cardiac": 5563,
      "presum": 5564,
      "##atorial": 5565,
      "clade": 5566,
      "##fila": 5567,
      "##alpha": 5568,
      "contributing": 5569,
      "gst": 5570,
      "sulfoxide": 5571,
      "lines": 5572,
      "##benzo": 5573,
      "pros": 5574,
      "hsp33": 5575,
      "murein": 5576,
      "##ustin": 5577,
      "compartments": 5578,
      "rnps": 5579,
      "importin": 5580,
      "plasmids": 5581,
      "gv": 5582,
      "nhr": 5583,
      "mv": 5584,
      "ppp": 5585,
      "spre": 5586,
      "21": 5587,
      "retrov": 5588,
      "##halose": 5589,
      "##5p": 5590,
      "flagellin": 5591,
      "hyperos": 5592,
      "##beta": 5593,
      "doase": 5594,
      "##dehydes": 5595,
      "bmp": 5596,
      "m2": 5597,
      "mammal": 5598,
      "medium": 5599,
      "mtrfase": 5600,
      "##rotase": 5601,
      "##559": 5602,
      "bidirection": 5603,
      "recx": 5604,
      "upf017": 5605,
      "##olpyrv": 5606,
      "penolpyrv": 5607,
      "autocatalytic": 5608,
      "nac": 5609,
      "##ospecific": 5610,
      "flavodoxin": 5611,
      "periplasm": 5612,
      "yj": 5613,
      "##rical": 5614,
      "##am1": 5615,
      "rhyth": 5616,
      "cullin": 5617,
      "lamin": 5618,
      "uq": 5619,
      "##ceptor": 5620,
      "ur": 5621,
      "trehalose": 5622,
      "isovalerate": 5623,
      "aureus": 5624,
      "hyperosmotic": 5625,
      "##ono": 5626,
      "linker": 5627,
      "cppx": 5628,
      "pb": 5629,
      "apolip": 5630,
      "pi3k": 5631,
      "neurotransmitter": 5632,
      "##rosis": 5633,
      "orth": 5634,
      "progra": 5635,
      "##integ": 5636,
      "##ineurin": 5637,
      "oligosaccharide": 5638,
      "mas": 5639,
      "deco2": 5640,
      "myco": 5641,
      "##amido": 5642,
      "deco2ase": 5643,
      "spl": 5644,
      "axon": 5645,
      "##terpene": 5646,
      "nucleotidyltransferase": 5647,
      "guid": 5648,
      "comm": 5649,
      "##ified": 5650,
      "pancreatic": 5651,
      "equatorial": 5652,
      "##6a": 5653,
      "##sua": 5654,
      "incision": 5655,
      "##antetheinyl": 5656,
      "neuron": 5657,
      "cobalamin": 5658,
      "so3": 5659,
      "pyran": 5660,
      "assimi": 5661,
      "hn": 5662,
      "methyltr": 5663,
      "superoxide": 5664,
      "trud": 5665,
      "##phosphorylated": 5666,
      "rlm": 5667,
      "disrupts": 5668,
      "card": 5669,
      "maf": 5670,
      "ribos": 5671,
      "biom": 5672,
      "##meric": 5673,
      "uppp": 5674,
      "s2al": 5675,
      "##oluble": 5676,
      "insoluble": 5677,
      "specialized": 5678,
      "leuk": 5679,
      "deacylation": 5680,
      "hos": 5681,
      "transformation": 5682,
      "sura": 5683,
      "calcineurin": 5684,
      "hslv": 5685,
      "deliver": 5686,
      "phyc": 5687,
      "##uron": 5688,
      "ferm": 5689,
      "6pgd": 5690,
      "##sb": 5691,
      "aldehydes": 5692,
      "stor": 5693,
      "expansion": 5694,
      "##ids": 5695,
      "translocates": 5696,
      "epi": 5697,
      "encodes": 5698,
      "rsua": 5699,
      "nucleoid": 5700,
      "pgi": 5701,
      "##osulf": 5702,
      "gtpases": 5703,
      "copies": 5704,
      "##otropin": 5705,
      "ygfz": 5706,
      "ihf": 5707,
      "yl": 5708,
      "completing": 5709,
      "nitric": 5710,
      "catenin": 5711,
      "swvl": 5712,
      "wrap": 5713,
      "current": 5714,
      "adenosylhom": 5715,
      "##ign": 5716,
      "aggreg": 5717,
      "carbamoylp": 5718,
      "dynamin": 5719,
      "rut": 5720,
      "concer": 5721,
      "minor": 5722,
      "miab": 5723,
      "##ult": 5724,
      "a15": 5725,
      "trimeric": 5726,
      "capped": 5727,
      "opg": 5728,
      "oligosaccharides": 5729,
      "cytokinesis": 5730,
      "##otd": 5731,
      "##ydrolase": 5732,
      "##imers": 5733,
      "dio": 5734,
      "usp": 5735,
      "ppantetheinyl": 5736,
      "stereospecific": 5737,
      "sensitive": 5738,
      "pfkb": 5739,
      "##osides": 5740,
      "lactamas": 5741,
      "##ung": 5742,
      "pyrrol": 5743,
      "##inuclear": 5744,
      "##merous": 5745,
      "relax": 5746,
      "flavi": 5747,
      "numerous": 5748,
      "mena": 5749,
      "alkyl": 5750,
      "hb": 5751,
      "determination": 5752,
      "rraa": 5753,
      "##osa": 5754,
      "s26": 5755,
      "exosome": 5756,
      "unch": 5757,
      "contin": 5758,
      "partially": 5759,
      "43": 5760,
      "##88": 5761,
      "sec61": 5762,
      "trs": 5763,
      "compact": 5764,
      "odo": 5765,
      "##gap": 5766,
      "##arboxylic": 5767,
      "mismatches": 5768,
      "rlmh": 5769,
      "m20a": 5770,
      "bilayer": 5771,
      "##eb": 5772,
      "crrna": 5773,
      "cere": 5774,
      "kyn": 5775,
      "##hydr": 5776,
      "extension": 5777,
      "hybrids": 5778,
      "crystallin": 5779,
      "aquap": 5780,
      "nicotinate": 5781,
      "unwinding": 5782,
      "35": 5783,
      "unstable": 5784,
      "ptp": 5785,
      "decay": 5786,
      "overex": 5787,
      "leucyl": 5788,
      "complete": 5789,
      "##fecting": 5790,
      "ubie": 5791,
      "methylthiorib": 5792,
      "continu": 5793,
      "jak": 5794,
      "##omb": 5795,
      "chey": 5796,
      "sumo": 5797,
      "hemat": 5798,
      "peroxisom": 5799,
      "ciii": 5800,
      "insect": 5801,
      "##tidrug": 5802,
      "polarity": 5803,
      "##for": 5804,
      "metalloc": 5805,
      "carboxymethylaminomethyl": 5806,
      "disassembly": 5807,
      "tus": 5808,
      "cellulose": 5809,
      "ug": 5810,
      "es24": 5811,
      "somat": 5812,
      "##synth": 5813,
      "##00": 5814,
      "characteristic": 5815,
      "dolichol": 5816,
      "gpr": 5817,
      "saturated": 5818,
      "dephosph": 5819,
      "enhance": 5820,
      "gef": 5821,
      "m5u": 5822,
      "gas": 5823,
      "vers": 5824,
      "aspartase": 5825,
      "domsf": 5826,
      "desulf": 5827,
      "dhqs": 5828,
      "vegf": 5829,
      "predominantly": 5830,
      "fox": 5831,
      "##enter": 5832,
      "ternary": 5833,
      "gatc": 5834,
      "idh": 5835,
      "##back": 5836,
      "thig": 5837,
      "betaine": 5838,
      "akt": 5839,
      "##iver": 5840,
      "sfsa": 5841,
      "rrnas": 5842,
      "coding": 5843,
      "carries": 5844,
      "ascorb": 5845,
      "providing": 5846,
      "vp1": 5847,
      "distribu": 5848,
      "polyaden": 5849,
      "##iff": 5850,
      "vp4": 5851,
      "restrct": 5852,
      "a3": 5853,
      "##wh": 5854,
      "methylbutanoate": 5855,
      "gatase1": 5856,
      "ll": 5857,
      "dise": 5858,
      "pyridoxamine": 5859,
      "transglycos": 5860,
      "##uli": 5861,
      "plus": 5862,
      "mer": 5863,
      "cd3": 5864,
      "hematopo": 5865,
      "##enses": 5866,
      "actrfase": 5867,
      "6pgluconate": 5868,
      "dioha": 5869,
      "phosphatidylglycerol": 5870,
      "fluc": 5871,
      "lactamase": 5872,
      "germin": 5873,
      "n7": 5874,
      "overal": 5875,
      "u5": 5876,
      "overall": 5877,
      "bund": 5878,
      "##alact": 5879,
      "disease": 5880,
      "tgt": 5881,
      "##ulates": 5882,
      "##tuin": 5883,
      "pb2": 5884,
      "diges": 5885,
      "##ises": 5886,
      "sepf": 5887,
      "##43": 5888,
      "multidrug": 5889,
      "hsp60": 5890,
      "arrestin": 5891,
      "hemagglutn": 5892,
      "nb": 5893,
      "##fb": 5894,
      "cooperate": 5895,
      "animal": 5896,
      "inhibited": 5897,
      "il6": 5898,
      "ybak": 5899,
      "rej": 5900,
      "bridging": 5901,
      "metallocenter": 5902,
      "involving": 5903,
      "methylvalerate": 5904,
      "ispe": 5905,
      "sb": 5906,
      "##fruc": 5907,
      "nav1": 5908,
      "dynamics": 5909,
      "introns": 5910,
      "##down": 5911,
      "receiver": 5912,
      "feedback": 5913,
      "aer": 5914,
      "ptrfase": 5915,
      "methyltransf": 5916,
      "hydrolyze": 5917,
      "##nan": 5918,
      "repeats": 5919,
      "building": 5920,
      "ga": 5921,
      "dutp": 5922,
      "dimeric": 5923,
      "presumably": 5924,
      "##xc": 5925,
      "##k3": 5926,
      "epider": 5927,
      "extent": 5928,
      "##isto": 5929,
      "faba": 5930,
      "cytokines": 5931,
      "ebfc": 5932,
      "nl": 5933,
      "esterase": 5934,
      "cytochromes": 5935,
      "eth": 5936,
      "gm": 5937,
      "hish": 5938,
      "msra": 5939,
      "phyto": 5940,
      "##66": 5941,
      "choline": 5942,
      "##ochlo": 5943,
      "cac": 5944,
      "prost": 5945,
      "mnh": 5946,
      "exoribonuclease": 5947,
      "successive": 5948,
      "mtorc1": 5949,
      "3rd": 5950,
      "muk": 5951,
      "synthetases": 5952,
      "pathogenic": 5953,
      "##yrimid": 5954,
      "8s": 5955,
      "folded": 5956,
      "neurom": 5957,
      "18s": 5958,
      "concert": 5959,
      "39": 5960,
      "thioc": 5961,
      "ries": 5962,
      "rieske": 5963,
      "##leuk": 5964,
      "##merization": 5965,
      "penet": 5966,
      "##yltranf": 5967,
      "##roc": 5968,
      "cyan": 5969,
      "##ially": 5970,
      "sigma70": 5971,
      "apolipoprotein": 5972,
      "determining": 5973,
      "secyeg": 5974,
      "##hoe": 5975,
      "##uren": 5976,
      "herpesviridae": 5977,
      "2c": 5978,
      "fgf": 5979,
      "##dle": 5980,
      "##mits": 5981,
      "tip": 5982,
      "##jc": 5983,
      "displacement": 5984,
      "kru": 5985,
      "##ducin": 5986,
      "propionate": 5987,
      "carbamoyltranf": 5988,
      "snare": 5989,
      "plsx": 5990,
      "pu": 5991,
      "bacterium": 5992,
      "hdac": 5993,
      "hemolytic": 5994,
      "lung": 5995,
      "shell": 5996,
      "coproporphyrinogen": 5997,
      "rag": 5998,
      "interleuk": 5999,
      "dicarboxylate": 6000,
      "csra": 6001,
      "transporters": 6002,
      "schiff": 6003,
      "##c3": 6004,
      "start": 6005,
      "calmod": 6006,
      "heparan": 6007,
      "hotd": 6008,
      "sul": 6009,
      "multim": 6010,
      "globular": 6011,
      "influen": 6012,
      "impro": 6013,
      "hotdog": 6014,
      "involve": 6015,
      "amyl": 6016,
      "fi": 6017,
      "kel": 6018,
      "mb": 6019,
      "depoly": 6020,
      "pretransfer": 6021,
      "affecting": 6022,
      "snrna": 6023,
      "ecto": 6024,
      "fragmentation": 6025,
      "composite": 6026,
      "##yrib": 6027,
      "tetr": 6028,
      "glycan": 6029,
      "protoheme": 6030,
      "destab": 6031,
      "##oty": 6032,
      "argb": 6033,
      "macrophage": 6034,
      "##ras": 6035,
      "##eppel": 6036,
      "orf": 6037,
      "krueppel": 6038,
      "pup": 6039,
      "tor": 6040,
      "carbons": 6041,
      "pln": 6042,
      "amine": 6043,
      "methylamine": 6044,
      "##orption": 6045,
      "suggested": 6046,
      "nap": 6047,
      "disinteg": 6048,
      "tfii": 6049,
      "orotate": 6050,
      "tal": 6051,
      "ang": 6052,
      "adam": 6053,
      "abs": 6054,
      "cleft": 6055,
      "rings": 6056,
      "kelch": 6057,
      "a0": 6058,
      "gyrase": 6059,
      "xpg": 6060,
      "heart": 6061,
      "##seshoe": 6062,
      "horseshoe": 6063,
      "har": 6064,
      "middle": 6065,
      "##ised": 6066,
      "ubiquitinated": 6067,
      "gt": 6068,
      "mpn": 6069,
      "calmodulin": 6070,
      "p700": 6071,
      "trho": 6072,
      "deacylates": 6073,
      "breakdown": 6074,
      "myristo": 6075,
      "u1": 6076,
      "##fun": 6077,
      "repl": 6078,
      "vp3": 6079,
      "hormones": 6080,
      "##guanosine": 6081,
      "imidazoleglycerol": 6082,
      "giving": 6083,
      "##rating": 6084,
      "closed": 6085,
      "u6": 6086,
      "cytosine": 6087,
      "civ": 6088,
      "mk": 6089,
      "osmo": 6090,
      "diffusion": 6091,
      "cau": 6092,
      "##ologically": 6093,
      "combined": 6094,
      "##over": 6095,
      "cgmp": 6096,
      "demethylation": 6097,
      "##onates": 6098,
      "esters": 6099,
      "pol3": 6100,
      "##kd": 6101,
      "aquaporin": 6102,
      "##aling": 6103,
      "identity": 6104,
      "adding": 6105,
      "developing": 6106,
      "##hion": 6107,
      "##ering": 6108,
      "alters": 6109,
      "malic": 6110,
      "neigh": 6111,
      "altering": 6112,
      "phycob": 6113,
      "neighb": 6114,
      "##anone": 6115,
      "neurop": 6116,
      "##mino": 6117,
      "fashion": 6118,
      "##bp2": 6119,
      "rotavirus": 6120,
      "assimilation": 6121,
      "##epress": 6122,
      "phosphofruc": 6123,
      "processed": 6124,
      "osmotic": 6125,
      "rhamnose": 6126,
      "proteoglycan": 6127,
      "ppgpp": 6128,
      "##ficient": 6129,
      "modulator": 6130,
      "mechanisms": 6131,
      "phosphofructokinase": 6132,
      "##bz": 6133,
      "##idal": 6134,
      "reper": 6135,
      "##ochlorophyll": 6136,
      "neighboring": 6137,
      "subcomplex": 6138,
      "alloster": 6139,
      "##ymmet": 6140,
      "interleukin": 6141,
      "lat": 6142,
      "cone": 6143,
      "ado": 6144,
      "##ipm": 6145,
      "homod": 6146,
      "neurite": 6147,
      "incoming": 6148,
      "cco": 6149,
      "ggpp": 6150,
      "xmp": 6151,
      "chond": 6152,
      "phosphotransferase": 6153,
      "proteases": 6154,
      "carbohydrates": 6155,
      "ole": 6156,
      "transac": 6157,
      "repro": 6158,
      "itga": 6159,
      "leaf": 6160,
      "shine": 6161,
      "sensitivity": 6162,
      "multimer": 6163,
      "##garno": 6164,
      "walls": 6165,
      "dalgarno": 6166,
      "deoxyrib": 6167,
      "nutrient": 6168,
      "bla": 6169,
      "##cence": 6170,
      "size": 6171,
      "##uct": 6172,
      "ppa": 6173,
      "##acteria": 6174,
      "apah": 6175,
      "competition": 6176,
      "##ique": 6177,
      "pyridoxine": 6178,
      "##filin": 6179,
      "##maleate": 6180,
      "transpr": 6181,
      "##crf": 6182,
      "determines": 6183,
      "anl": 6184,
      "regen": 6185,
      "retrograde": 6186,
      "distribution": 6187,
      "soc": 6188,
      "ubid": 6189,
      "trimeth": 6190,
      "detoxification": 6191,
      "phosphorylating": 6192,
      "isopropylmaleate": 6193,
      "b559": 6194,
      "emp": 6195,
      "ipmi": 6196,
      "skeletal": 6197,
      "##filaments": 6198,
      "##benzoate": 6199,
      "ope": 6200,
      "##ressing": 6201,
      "counteracts": 6202,
      "reperto": 6203,
      "pth": 6204,
      "repertoire": 6205,
      "exer": 6206,
      "upf0234": 6207,
      "lgt": 6208,
      "stre": 6209,
      "competent": 6210,
      "sap": 6211,
      "##52": 6212,
      "transiently": 6213,
      "s3": 6214,
      "##unt": 6215,
      "##urinic": 6216,
      "apurinic": 6217,
      "rbsd": 6218,
      "nlrp": 6219,
      "##oenzyme": 6220,
      "clpb": 6221,
      "progenit": 6222,
      "##503": 6223,
      "##glycinamidine": 6224,
      "##onine": 6225,
      "##oma": 6226,
      "glgb": 6227,
      "epoxy": 6228,
      "##dcd": 6229,
      "adapt": 6230,
      "cytoskeletal": 6231,
      "full": 6232,
      "wdr": 6233,
      "typical": 6234,
      "pigment": 6235,
      "processively": 6236,
      "rd": 6237,
      "unique": 6238,
      "papill": 6239,
      "molybdopterin": 6240,
      "coil": 6241,
      "vesicular": 6242,
      "minus": 6243,
      "iden": 6244,
      "phenylalanyl": 6245,
      "##rowth": 6246,
      "continuous": 6247,
      "sulph": 6248,
      "heterodimers": 6249,
      "auton": 6250,
      "m7g": 6251,
      "##enum": 6252,
      "cons": 6253,
      "conjugates": 6254,
      "assists": 6255,
      "ton": 6256,
      "##ode": 6257,
      "permitting": 6258,
      "eg": 6259,
      "##phal": 6260,
      "##illa": 6261,
      "ureg": 6262,
      "##102": 6263,
      "##aspart": 6264,
      "etf": 6265,
      "##pression": 6266,
      "lim": 6267,
      "bile": 6268,
      "apyrimid": 6269,
      "rlme": 6270,
      "##rogenic": 6271,
      "##iredoxin": 6272,
      "meti": 6273,
      "c19": 6274,
      "significant": 6275,
      "cpa": 6276,
      "kr": 6277,
      "suppression": 6278,
      "accelera": 6279,
      "begins": 6280,
      "protrusion": 6281,
      "glycosidase": 6282,
      "##eceptor": 6283,
      "##ier": 6284,
      "##itive": 6285,
      "reorgan": 6286,
      "csn": 6287,
      "whia": 6288,
      "amidotransferase": 6289,
      "deacetylation": 6290,
      "homology": 6291,
      "dhoase": 6292,
      "phosphoribose": 6293,
      "buten": 6294,
      "apyrimidinic": 6295,
      "bt": 6296,
      "dme": 6297,
      "gaf": 6298,
      "hemi": 6299,
      "multic": 6300,
      "##osulfate": 6301,
      "coh": 6302,
      "cancer": 6303,
      "transitions": 6304,
      "##ulos": 6305,
      "synthesize": 6306,
      "originating": 6307,
      "cd8": 6308,
      "influx": 6309,
      "endodnase": 6310,
      "rgs": 6311,
      "phyt": 6312,
      "##ick": 6313,
      "ascorbate": 6314,
      "fo": 6315,
      "mel": 6316,
      "##growth": 6317,
      "lambd": 6318,
      "methylthiolation": 6319,
      "krab": 6320,
      "press": 6321,
      "asymmet": 6322,
      "quec": 6323,
      "htpa": 6324,
      "transglycosylase": 6325,
      "load": 6326,
      "fimb": 6327,
      "##rovers": 6328,
      "##lets": 6329,
      "##olic": 6330,
      "controvers": 6331,
      "controversial": 6332,
      "nucleop": 6333,
      "ciliary": 6334,
      "t3": 6335,
      "##ocyto": 6336,
      "any": 6337,
      "pla2": 6338,
      "make": 6339,
      "photoreceptor": 6340,
      "##my": 6341,
      "stalling": 6342,
      "outgrowth": 6343,
      "phosphodiesterase": 6344,
      "26s": 6345,
      "suppor": 6346,
      "cave": 6347,
      "mast": 6348,
      "lysozyme": 6349,
      "fragments": 6350,
      "##kl": 6351,
      "endocytic": 6352,
      "lysosome": 6353,
      "rnapol": 6354,
      "eph": 6355,
      "s19": 6356,
      "##olactate": 6357,
      "odorant": 6358,
      "mix": 6359,
      "uree": 6360,
      "plast": 6361,
      "ipt": 6362,
      "##erg": 6363,
      "clearance": 6364,
      "delivered": 6365,
      "dr": 6366,
      "uf": 6367,
      "uaa": 6368,
      "translocate": 6369,
      "agents": 6370,
      "renal": 6371,
      "##isphosphate": 6372,
      "##asome": 6373,
      "sensory": 6374,
      "b3": 6375,
      "##68": 6376,
      "##rrna": 6377,
      "##icular": 6378,
      "##viruses": 6379,
      "rbp11": 6380,
      "proteinase": 6381,
      "coiled": 6382,
      "electroph": 6383,
      "monomers": 6384,
      "performs": 6385,
      "get": 6386,
      "##occ": 6387,
      "subtyp": 6388,
      "biofil": 6389,
      "relay": 6390,
      "ketoisovalerate": 6391,
      "dah": 6392,
      "hypo": 6393,
      "hflx": 6394,
      "lysophosphatidyl": 6395,
      "##sive": 6396,
      "sulfite": 6397,
      "thioesterase": 6398,
      "conjugated": 6399,
      "trapped": 6400,
      "tb": 6401,
      "##elium": 6402,
      "centri": 6403,
      "centrosome": 6404,
      "##ection": 6405,
      "capable": 6406,
      "performed": 6407,
      "##imd": 6408,
      "removed": 6409,
      "apoe": 6410,
      "porphobilinogen": 6411,
      "nik": 6412,
      "hydrolytic": 6413,
      "molybdenum": 6414,
      "pb1": 6415,
      "luxs": 6416,
      "tonb": 6417,
      "rates": 6418,
      "proximal": 6419,
      "##edd": 6420,
      "##ected": 6421,
      "ligands": 6422,
      "##ochlorophyllide": 6423,
      "kaz": 6424,
      "mtp": 6425,
      "##59": 6426,
      "##ctive": 6427,
      "motifs": 6428,
      "##olipids": 6429,
      "represents": 6430,
      "depent": 6431,
      "mice": 6432,
      "diacylglucosamine": 6433,
      "pressure": 6434,
      "nup": 6435,
      "gluq": 6436,
      "bcc": 6437,
      "ribokinase": 6438,
      "##sure": 6439,
      "rpb3": 6440,
      "polyubiquitination": 6441,
      "plsy": 6442,
      "ensures": 6443,
      "mononucleotide": 6444,
      "##tified": 6445,
      "constitutes": 6446,
      "exposure": 6447,
      "synthesizing": 6448,
      "hscb": 6449,
      "mimic": 6450,
      "ach": 6451,
      "ketobutyrate": 6452,
      "gpp": 6453,
      "##yly": 6454,
      "contacting": 6455,
      "dtdp": 6456,
      "kynuren": 6457,
      "bch": 6458,
      "##anol": 6459,
      "##ronate": 6460,
      "##oblast": 6461,
      "acetylmura": 6462,
      "ase": 6463,
      "##inin": 6464,
      "diguan": 6465,
      "homocysteine": 6466,
      "variable": 6467,
      "##lear": 6468,
      "n4": 6469,
      "##be": 6470,
      "##cellular": 6471,
      "protofilaments": 6472,
      "m16": 6473,
      "lambda": 6474,
      "##me3": 6475,
      "secd": 6476,
      "caro": 6477,
      "deacylated": 6478,
      "rnfae": 6479,
      "nqrde": 6480,
      "glycosidic": 6481,
      "shikm": 6482,
      "disintegrin": 6483,
      "ndp": 6484,
      "kcna": 6485,
      "hosted": 6486,
      "##oding": 6487,
      "kazal": 6488,
      "##onad": 6489,
      "oxop": 6490,
      "hipp": 6491,
      "plastocyanin": 6492,
      "code": 6493,
      "aprtase": 6494,
      "van": 6495,
      "##imidazole": 6496,
      "chp": 6497,
      "ns3": 6498,
      "##62": 6499,
      "hydrogenase": 6500,
      "pyridoxalp": 6501,
      "carboxylic": 6502,
      "ya": 6503,
      "##omycin": 6504,
      "chrna": 6505,
      "myelin": 6506,
      "##iliary": 6507,
      "##otropic": 6508,
      "kdo": 6509,
      "mmp": 6510,
      "acetolactate": 6511,
      "decoding": 6512,
      "autophagic": 6513,
      "m3": 6514,
      "thz": 6515,
      "##ats": 6516,
      "xer": 6517,
      "initiating": 6518,
      "##olecules": 6519,
      "nachr": 6520,
      "ey": 6521,
      "mog": 6522,
      "pmp": 6523,
      "thump": 6524,
      "##ury": 6525,
      "adult": 6526,
      "sever": 6527,
      "stepwise": 6528,
      "subtilisin": 6529,
      "bccp": 6530,
      "localized": 6531,
      "##odiphosphate": 6532,
      "itpase": 6533,
      "chain4": 6534,
      "remaining": 6535,
      "##iii": 6536,
      "peroxisomal": 6537,
      "force": 6538,
      "##ota": 6539,
      "ketoacid": 6540,
      "sirtuin": 6541,
      "polyamine": 6542,
      "sec23": 6543,
      "allosteric": 6544,
      "a8": 6545,
      "kb": 6546,
      "metrs": 6547,
      "abrb": 6548,
      "accepts": 6549,
      "pms": 6550,
      "upf014": 6551,
      "dimethylallyltransferase": 6552,
      "pyrroline": 6553,
      "cysn": 6554,
      "hcs": 6555,
      "om": 6556,
      "cyp": 6557,
      "diame": 6558,
      "prd": 6559,
      "aldolases": 6560,
      "dsr": 6561,
      "mapk1": 6562,
      "ltp": 6563,
      "purt": 6564,
      "nict": 6565,
      "mlh": 6566,
      "staph": 6567,
      "##ifying": 6568,
      "##cop": 6569,
      "metaz": 6570,
      "upf0102": 6571,
      "cyclodiphosphate": 6572,
      "ohase": 6573,
      "##bzimd": 6574,
      "dmebzimd": 6575,
      "accoa": 6576,
      "includes": 6577,
      "mtn": 6578,
      "el30": 6579,
      "##imelic": 6580,
      "cav": 6581,
      "strip": 6582,
      "contrac": 6583,
      "rsga": 6584,
      "cbl": 6585,
      "##uscular": 6586,
      "basic": 6587,
      "ks": 6588,
      "##ocysteinyl": 6589,
      "selenocysteinyl": 6590,
      "switches": 6591,
      "hp": 6592,
      "toll": 6593,
      "unfolding": 6594,
      "fil": 6595,
      "##tite": 6596,
      "##openten": 6597,
      "embryogenesis": 6598,
      "fimbri": 6599,
      "rig": 6600,
      "metn": 6601,
      "diaminopimelic": 6602,
      "ai": 6603,
      "trac": 6604,
      "90": 6605,
      "tethering": 6606,
      "gn": 6607,
      "opp": 6608,
      "anne": 6609,
      "prolip": 6610,
      "acetylmuramic": 6611,
      "fbab": 6612,
      "##rum": 6613,
      "spovt": 6614,
      "patterning": 6615,
      "##quisite": 6616,
      "prolipoprotein": 6617,
      "acetylated": 6618,
      "erf": 6619,
      "srp54": 6620,
      "##edge": 6621,
      "protochlorophyllide": 6622,
      "lysop": 6623,
      "mdt": 6624,
      "archaea": 6625,
      "##erin": 6626,
      "affect": 6627,
      "anchored": 6628,
      "kid": 6629,
      "s6": 6630,
      "##m2": 6631,
      "reactiv": 6632,
      "##acc": 6633,
      "itgb": 6634,
      "ap2": 6635,
      "36": 6636,
      "##den": 6637,
      "##oss": 6638,
      "##crt": 6639,
      "bidirectionally": 6640,
      "mind": 6641,
      "##austin": 6642,
      "##pecially": 6643,
      "especially": 6644,
      "ammonium": 6645,
      "was": 6646,
      "##yran": 6647,
      "##domain": 6648,
      "exocytosis": 6649,
      "rsma": 6650,
      "salt": 6651,
      "squalene": 6652,
      "papillom": 6653,
      "pcrf": 6654,
      "zf": 6655,
      "##otri": 6656,
      "tan": 6657,
      "prere": 6658,
      "hepat": 6659,
      "peroxidases": 6660,
      "urea": 6661,
      "prerequisite": 6662,
      "##ibri": 6663,
      "##elles": 6664,
      "amylase": 6665,
      "##f7": 6666,
      "purh": 6667,
      "effectors": 6668,
      "plastoq": 6669,
      "epigen": 6670,
      "binuclear": 6671,
      "hmb": 6672,
      "##rise": 6673,
      "##oche": 6674,
      "pyrop": 6675,
      "uncharacter": 6676,
      "fate": 6677,
      "immob": 6678,
      "fos": 6679,
      "udg": 6680,
      "wound": 6681,
      "##5c": 6682,
      "##lys": 6683,
      "oligop": 6684,
      "alcohols": 6685,
      "##ivirus": 6686,
      "imid": 6687,
      "sf2": 6688,
      "cho": 6689,
      "terminated": 6690,
      "b12": 6691,
      "oxa1": 6692,
      "##bb": 6693,
      "##rl": 6694,
      "exopeptidase": 6695,
      "pdxt": 6696,
      "3r": 6697,
      "cchc": 6698,
      "moba": 6699,
      "##hog": 6700,
      "next": 6701,
      "formyltetrahydrofolate": 6702,
      "delivers": 6703,
      "reading": 6704,
      "##isaccharide": 6705,
      "##oxal": 6706,
      "dhbp": 6707,
      "##onucleolytic": 6708,
      "hesb": 6709,
      "epigenetic": 6710,
      "terpenoid": 6711,
      "alb3": 6712,
      "fdx": 6713,
      "controlled": 6714,
      "nitrite": 6715,
      "spectrum": 6716,
      "ceramide": 6717,
      "corepress": 6718,
      "##thiol": 6719,
      "biofilm": 6720,
      "xanthine": 6721,
      "monoubiquitin": 6722,
      "ura": 6723,
      "akt1": 6724,
      "tem": 6725,
      "funnel": 6726,
      "egfr": 6727,
      "arac": 6728,
      "hedge": 6729,
      "##ylases": 6730,
      "hcv": 6731,
      "hedgehog": 6732,
      "m12": 6733,
      "meta": 6734,
      "##amino": 6735,
      "anaphase": 6736,
      "##opept": 6737,
      "carn": 6738,
      "dttp": 6739,
      "fibri": 6740,
      "octanoyltransferase": 6741,
      "split": 6742,
      "rrp": 6743,
      "anal": 6744,
      "xanthosine": 6745,
      "sirohaem": 6746,
      "sre": 6747,
      "##v1": 6748,
      "acgl": 6749,
      "forces": 6750,
      "plastic": 6751,
      "##uronic": 6752,
      "##appropri": 6753,
      "##amines": 6754,
      "les": 6755,
      "electrogenic": 6756,
      "##valonate": 6757,
      "sye": 6758,
      "propag": 6759,
      "enhancer": 6760,
      "rf3": 6761,
      "##like": 6762,
      "add": 6763,
      "dihydrop": 6764,
      "inflammasome": 6765,
      "nsp3": 6766,
      "cotranslation": 6767,
      "acetaldehyde": 6768,
      "rad54": 6769,
      "##lanto": 6770,
      "##lavine": 6771,
      "ribose5p": 6772,
      "lesser": 6773,
      "making": 6774,
      "therm": 6775,
      "gmc": 6776,
      "dhha": 6777,
      "phosphorylate": 6778,
      "spike": 6779,
      "rlub": 6780,
      "minimal": 6781,
      "destabil": 6782,
      "##chy": 6783,
      "leg": 6784,
      "upf030": 6785,
      "ccm": 6786,
      "acmur": 6787,
      "ubi": 6788,
      "epoxid": 6789,
      "mutarotase": 6790,
      "##omous": 6791,
      "apob": 6792,
      "sq": 6793,
      "xen": 6794,
      "##benz": 6795,
      "quinolinate": 6796,
      "bmal": 6797,
      "transmits": 6798,
      "allanto": 6799,
      "lipoamide": 6800,
      "tetramer": 6801,
      "gcs": 6802,
      "gcp": 6803,
      "src": 6804,
      "autonomous": 6805,
      "metalloproteinase": 6806,
      "folate": 6807,
      "##xo": 6808,
      "argj": 6809,
      "monophosphates": 6810,
      "partition": 6811,
      "swi": 6812,
      "transacylase": 6813,
      "lit": 6814,
      "mpt": 6815,
      "proteolipid": 6816,
      "antigens": 6817,
      "polyadenylation": 6818,
      "lta": 6819,
      "##ocamp": 6820,
      "##azine": 6821,
      "s1a": 6822,
      "##ney": 6823,
      "hisk": 6824,
      "dephosphorylates": 6825,
      "kidney": 6826,
      "5kinase": 6827,
      "##tities": 6828,
      "tetrasp": 6829,
      "global": 6830,
      "hippocamp": 6831,
      "distal": 6832,
      "somewh": 6833,
      "somewhat": 6834,
      "##ects": 6835,
      "diameter": 6836,
      "31": 6837,
      "irf3": 6838,
      "rimk": 6839,
      "nuok": 6840,
      "tetraspanin": 6841,
      "##ka": 6842,
      "prob": 6843,
      "exogenous": 6844,
      "oro": 6845,
      "posts": 6846,
      "dipeptide": 6847,
      "gonad": 6848,
      "mta": 6849,
      "dxpr": 6850,
      "rearrangements": 6851,
      "mycob": 6852,
      "##obiose": 6853,
      "cystine": 6854,
      "necrosis": 6855,
      "hlh": 6856,
      "butenyl": 6857,
      "##utes": 6858,
      "hydrolyzing": 6859,
      "decreasing": 6860,
      "cationic": 6861,
      "isph": 6862,
      "##99": 6863,
      "symmetry": 6864,
      "ple": 6865,
      "cnmp": 6866,
      "orotidine": 6867,
      "kds": 6868,
      "por": 6869,
      "pirna": 6870,
      "##63": 6871,
      "phb": 6872,
      "mesen": 6873,
      "const": 6874,
      "butanone": 6875,
      "stimuli": 6876,
      "fdh": 6877,
      "hence": 6878,
      "vap": 6879,
      "mnm": 6880,
      "vl": 6881,
      "##au": 6882,
      "##lyoxal": 6883,
      "mete": 6884,
      "depolar": 6885,
      "##anning": 6886,
      "triggering": 6887,
      "1402": 6888,
      "flo": 6889,
      "lacks": 6890,
      "##r3": 6891,
      "##rud": 6892,
      "replicative": 6893,
      "c1402": 6894,
      "dinuclear": 6895,
      "fsap": 6896,
      "##mers": 6897,
      "pbp": 6898,
      "##hb": 6899,
      "cleavages": 6900,
      "drive": 6901,
      "pdxs": 6902,
      "methylglyoxal": 6903,
      "##hy": 6904,
      "postsynaptic": 6905,
      "mem": 6906,
      "l4": 6907,
      "nam": 6908,
      "organelles": 6909,
      "caroten": 6910,
      "xyla": 6911,
      "proof": 6912,
      "yeast": 6913,
      "lysopl": 6914,
      "uncharacterised": 6915,
      "antifun": 6916,
      "##lude": 6917,
      "phenylalanine": 6918,
      "sides": 6919,
      "polyribonucleotides": 6920,
      "availability": 6921,
      "##qc": 6922,
      "inosine": 6923,
      "starting": 6924,
      "plasticity": 6925,
      "33": 6926,
      "ys": 6927,
      "later": 6928,
      "u2": 6929,
      "ally": 6930,
      "aminobut": 6931,
      "colon": 6932,
      "fri": 6933,
      "whose": 6934,
      "moco": 6935,
      "allylic": 6936,
      "acetylglutamate": 6937,
      "deubiquitination": 6938,
      "biomolecules": 6939,
      "amyloid": 6940,
      "m28": 6941,
      "additionally": 6942,
      "cortical": 6943,
      "holding": 6944,
      "antifungal": 6945,
      "l5": 6946,
      "##65": 6947,
      "##lication": 6948,
      "lysis": 6949,
      "erk": 6950,
      "spore": 6951,
      "complementary": 6952,
      "aus": 6953,
      "loss": 6954,
      "rip": 6955,
      "yet": 6956,
      "conduction": 6957,
      "glutaminase": 6958,
      "vp7": 6959,
      "aggregates": 6960,
      "diguanyl": 6961,
      "acetylmuramoyl": 6962,
      "erm": 6963,
      "creat": 6964,
      "##aviridae": 6965,
      "nh2trfase": 6966,
      "trsase": 6967,
      "fpp": 6968,
      "maximal": 6969,
      "excre": 6970,
      "tightly": 6971,
      "##bene": 6972,
      "##omp": 6973,
      "s10": 6974,
      "##ohydrolase": 6975,
      "##tch": 6976,
      "glycyl": 6977,
      "ccme": 6978,
      "cbs": 6979,
      "proofre": 6980,
      "pil": 6981,
      "oxa": 6982,
      "behavior": 6983,
      "reorganization": 6984,
      "xse": 6985,
      "encapsidated": 6986,
      "homodimer": 6987,
      "ethyl": 6988,
      "ost": 6989,
      "##rys": 6990,
      "##hexose": 6991,
      "casein": 6992,
      "4l": 6993,
      "##enin": 6994,
      "ensure": 6995,
      "agc": 6996,
      "##420": 6997,
      "isoch": 6998,
      "potenti": 6999,
      "autophagosome": 7000,
      "env": 7001,
      "erythrocytes": 7002,
      "entering": 7003,
      "gan": 7004,
      "contrast": 7005,
      "proofreading": 7006,
      "ra": 7007,
      "##lies": 7008,
      "lytic": 7009,
      "vinyl": 7010,
      "##phth": 7011,
      "rnasea": 7012,
      "##taxin": 7013,
      "normally": 7014,
      "joining": 7015,
      "spread": 7016,
      "asf": 7017,
      "spliced": 7018,
      "dtb": 7019,
      "eng": 7020,
      "##olecular": 7021,
      "##120": 7022,
      "exchanger": 7023,
      "cyclotide": 7024,
      "psba": 7025,
      "guide": 7026,
      "gnat": 7027,
      "s53": 7028,
      "information": 7029,
      "period": 7030,
      "mraw": 7031,
      "##fh": 7032,
      "unwinds": 7033,
      "sequester": 7034,
      "htpx": 7035,
      "penetration": 7036,
      "band": 7037,
      "transactivation": 7038,
      "escrt": 7039,
      "ccch": 7040,
      "fabh": 7041,
      "fc": 7042,
      "##pep": 7043,
      "fluid": 7044,
      "five": 7045,
      "include": 7046,
      "nagsa": 7047,
      "dsbb": 7048,
      "chain4l": 7049,
      "kill": 7050,
      "##ese": 7051,
      "atten": 7052,
      "cause": 7053,
      "antiterminator": 7054,
      "##somal": 7055,
      "##eries": 7056,
      "sugars": 7057,
      "synapto": 7058,
      "machineries": 7059,
      "regeneration": 7060,
      "##verses": 7061,
      "upf00": 7062,
      "presynaptic": 7063,
      "vwf": 7064,
      "overexpression": 7065,
      "lag": 7066,
      "nearly": 7067,
      "sulfhydr": 7068,
      "s26a": 7069,
      "xerd": 7070,
      "right": 7071,
      "##way": 7072,
      "ribsomal": 7073,
      "51": 7074,
      "limit": 7075,
      "axone": 7076,
      "metazoa": 7077,
      "##77": 7078,
      "conn": 7079,
      "composition": 7080,
      "deposition": 7081,
      "displacing": 7082,
      "adenylyltransferase": 7083,
      "neuromuscular": 7084,
      "assemble": 7085,
      "attenu": 7086,
      "lpa": 7087,
      "chromo": 7088,
      "auxiliary": 7089,
      "##zo": 7090,
      "##hydroxy": 7091,
      "pgam": 7092,
      "urod": 7093,
      "sno": 7094,
      "retrotrans": 7095,
      "frataxin": 7096,
      "stilbene": 7097,
      "tempera": 7098,
      "tg": 7099,
      "interior": 7100,
      "##ulder": 7101,
      "psa": 7102,
      "pfor": 7103,
      "filamentous": 7104,
      "##scis": 7105,
      "cm": 7106,
      "p38": 7107,
      "tmp": 7108,
      "nifh": 7109,
      "rimo": 7110,
      "modifies": 7111,
      "mammalian": 7112,
      "regular": 7113,
      "stop": 7114,
      "much": 7115,
      "magnes": 7116,
      "fru": 7117,
      "luc": 7118,
      "##set": 7119,
      "nucleate": 7120,
      "abscis": 7121,
      "gpat": 7122,
      "itgb1": 7123,
      "ov": 7124,
      "inward": 7125,
      "##tence": 7126,
      "phosphohexose": 7127,
      "##ocysteinase": 7128,
      "optimal": 7129,
      "metallopept": 7130,
      "coq5": 7131,
      "commun": 7132,
      "hdrlase": 7133,
      "##zz": 7134,
      "tails": 7135,
      "##ulon": 7136,
      "l12": 7137,
      "tud": 7138,
      "enters": 7139,
      "sex": 7140,
      "lysidine": 7141,
      "loci": 7142,
      "recognizing": 7143,
      "phosphatidylcholine": 7144,
      "frame": 7145,
      "granules": 7146,
      "glyoxylate": 7147,
      "improper": 7148,
      "arfgap": 7149,
      "aminoacylate": 7150,
      "magnesium": 7151,
      "jnk": 7152,
      "tig": 7153,
      "backward": 7154,
      "h3k4": 7155,
      "methylguanine": 7156,
      "ribbon": 7157,
      "##ylylation": 7158,
      "stresses": 7159,
      "mode": 7160,
      "dsbs": 7161,
      "cutic": 7162,
      "shoulder": 7163,
      "improperly": 7164,
      "dele": 7165,
      "mre": 7166,
      "ping": 7167,
      "pong": 7168,
      "sant": 7169,
      "##agland": 7170,
      "coopera": 7171,
      "gua": 7172,
      "tas": 7173,
      "##hep": 7174,
      "capac": 7175,
      "triggered": 7176,
      "cdkn": 7177,
      "trimers": 7178,
      "prostagland": 7179,
      "itp": 7180,
      "uag": 7181,
      "b1a": 7182,
      "f2": 7183,
      "##yladen": 7184,
      "##delate": 7185,
      "bpti": 7186,
      "race": 7187,
      "synapses": 7188,
      "trm10": 7189,
      "##opox": 7190,
      "ard": 7191,
      "currents": 7192,
      "osm": 7193,
      "es1": 7194,
      "cereb": 7195,
      "impor": 7196,
      "glycolytic": 7197,
      "attac": 7198,
      "55": 7199,
      "##ykinin": 7200,
      "##xb": 7201,
      "ast": 7202,
      "processome": 7203,
      "dehydroquinase": 7204,
      "epidermal": 7205,
      "lysoplipase": 7206,
      "##fl": 7207,
      "cobb": 7208,
      "paras": 7209,
      "symmetrical": 7210,
      "tudor": 7211,
      "l7": 7212,
      "quite": 7213,
      "tube": 7214,
      "antitermination": 7215,
      "m12b": 7216,
      "aminop": 7217,
      "##tensin": 7218,
      "mandelate": 7219,
      "cupredoxin": 7220,
      "##rocyte": 7221,
      "gels": 7222,
      "obser": 7223,
      "##ganese": 7224,
      "recombinational": 7225,
      "manganese": 7226,
      "20s": 7227,
      "sat": 7228,
      "##urine": 7229,
      "bifunc": 7230,
      "##initi": 7231,
      "acired": 7232,
      "##que": 7233,
      "traverses": 7234,
      "c15": 7235,
      "alanyl": 7236,
      "scaffolding": 7237,
      "connexin": 7238,
      "lysophosphatidic": 7239,
      "##uctone": 7240,
      "acireductone": 7241,
      "sbp": 7242,
      "##ker": 7243,
      "acidification": 7244,
      "autoind": 7245,
      "shown": 7246,
      "brom": 7247,
      "dus": 7248,
      "l17": 7249,
      "s17": 7250,
      "vent": 7251,
      "anterior": 7252,
      "resemb": 7253,
      "sud": 7254,
      "nadd": 7255,
      "##acylglycerol": 7256,
      "##ietic": 7257,
      "ptc": 7258,
      "rpo6": 7259,
      "granule": 7260,
      "basis": 7261,
      "nan": 7262,
      "inst": 7263,
      "capsids": 7264,
      "peroxiredoxin": 7265,
      "inactivated": 7266,
      "ded": 7267,
      "##orna": 7268,
      "sting": 7269,
      "model": 7270,
      "occurring": 7271,
      "wraps": 7272,
      "epoxidation": 7273,
      "kdsb": 7274,
      "lpt": 7275,
      "##ocin": 7276,
      "mitophagy": 7277,
      "desulfu": 7278,
      "nos": 7279,
      "ribosyltransferase": 7280,
      "phenyl": 7281,
      "##sp1": 7282,
      "cgta": 7283,
      "dephospho": 7284,
      "lg": 7285,
      "arresting": 7286,
      "bcr": 7287,
      "erad": 7288,
      "##ubst": 7289,
      "shap": 7290,
      "hydroxyamino": 7291,
      "lgi": 7292,
      "pbs": 7293,
      "hydroperox": 7294,
      "abundant": 7295,
      "##rophic": 7296,
      "kynurenine": 7297,
      "##inamide": 7298,
      "station": 7299,
      "##lycin": 7300,
      "calycin": 7301,
      "bcl2": 7302,
      "eye": 7303,
      "fair": 7304,
      "closure": 7305,
      "rad51": 7306,
      "enhanced": 7307,
      "gcvp": 7308,
      "destro": 7309,
      "g1p": 7310,
      "segment": 7311,
      "fairly": 7312,
      "unus": 7313,
      "follic": 7314,
      "copy": 7315,
      "nikr": 7316,
      "stationary": 7317,
      "lt": 7318,
      "m41": 7319,
      "ube2": 7320,
      "el8": 7321,
      "agpr": 7322,
      "rck": 7323,
      "ctnn": 7324,
      "fibrob": 7325,
      "nop2": 7326,
      "olfac": 7327,
      "caused": 7328,
      "ppr": 7329,
      "mitochondrion": 7330,
      "starch": 7331,
      "npc": 7332,
      "sulfhydryl": 7333,
      "cost": 7334,
      "regulon": 7335,
      "ubl": 7336,
      "##cet": 7337,
      "##isc": 7338,
      "oxygenase": 7339,
      "dimethylates": 7340,
      "injury": 7341,
      "oaa": 7342,
      "profilin": 7343,
      "hsp40": 7344,
      "overhan": 7345,
      "lamb": 7346,
      "asymmetric": 7347,
      "analog": 7348,
      "gelsolin": 7349,
      "##tional": 7350,
      "serum": 7351,
      "##olipin": 7352,
      "ctdl": 7353,
      "constituent": 7354,
      "polyribonucleotide": 7355,
      "ldlr": 7356,
      "gmha": 7357,
      "upf0145": 7358,
      "##oral": 7359,
      "longer": 7360,
      "cdc42": 7361,
      "##tcase": 7362,
      "motors": 7363,
      "##liding": 7364,
      "immunoglobulins": 7365,
      "programm": 7366,
      "##initiation": 7367,
      "arise": 7368,
      "otcase": 7369,
      "##ea": 7370,
      "toxinl": 7371,
      "100": 7372,
      "##propyl": 7373,
      "tau": 7374,
      "elic": 7375,
      "sun": 7376,
      "phosphates": 7377,
      "s14": 7378,
      "neutrophils": 7379,
      "##tention": 7380,
      "somatotropin": 7381,
      "excess": 7382,
      "synerg": 7383,
      "c14": 7384,
      "##bi": 7385,
      "##x2": 7386,
      "retention": 7387,
      "cycles": 7388,
      "pseudo": 7389,
      "hydratase": 7390,
      "##alase": 7391,
      "##oder": 7392,
      "agon": 7393,
      "map3": 7394,
      "physiologically": 7395,
      "lgiase": 7396,
      "##phenol": 7397,
      "unco": 7398,
      "citric": 7399,
      "##uran": 7400,
      "##gc": 7401,
      "mobilization": 7402,
      "##romeric": 7403,
      "identified": 7404,
      "b1": 7405,
      "##alt": 7406,
      "hap": 7407,
      "initiated": 7408,
      "ampl": 7409,
      "##prtase": 7410,
      "tetraacyl": 7411,
      "tricarboxylic": 7412,
      "##disaccharide": 7413,
      "formylglycinamide": 7414,
      "tetramers": 7415,
      "rac1": 7416,
      "rise": 7417,
      "ribosylhom": 7418,
      "heterot": 7419,
      "tetraacyldisaccharide": 7420,
      "46": 7421,
      "tepa": 7422,
      "coag": 7423,
      "mscl": 7424,
      "cooperates": 7425,
      "hfq": 7426,
      "proteobac": 7427,
      "##phase": 7428,
      "alpha1": 7429,
      "amidation": 7430,
      "hase": 7431,
      "rat": 7432,
      "acl": 7433,
      "acglu": 7434,
      "ccac": 7435,
      "glyoxalase": 7436,
      "r3": 7437,
      "##nor": 7438,
      "gangl": 7439,
      "lb": 7440,
      "l2": 7441,
      "nub": 7442,
      "pik": 7443,
      "immature": 7444,
      "epoxide": 7445,
      "nucleophilic": 7446,
      "lan": 7447,
      "mpg": 7448,
      "sliding": 7449,
      "trnai": 7450,
      "##hydrase": 7451,
      "arms": 7452,
      "pattern": 7453,
      "series": 7454,
      "dispa": 7455,
      "respective": 7456,
      "fnr": 7457,
      "restricting": 7458,
      "##imeloyl": 7459,
      "disparate": 7460,
      "##zation": 7461,
      "##artite": 7462,
      "phosphohe": 7463,
      "inside": 7464,
      "coprogen": 7465,
      "phosphohexomutase": 7466,
      "paf": 7467,
      "##ution": 7468,
      "coatomer": 7469,
      "cw": 7470,
      "##porin": 7471,
      "fsa": 7472,
      "pip": 7473,
      "pimeloyl": 7474,
      "epimer": 7475,
      "uvrd": 7476,
      "sufficient": 7477,
      "cytidylyltransferase": 7478,
      "adaptation": 7479,
      "mesenchy": 7480,
      "vldl": 7481,
      "observed": 7482,
      "gover": 7483,
      "knase": 7484,
      "translate": 7485,
      "stat3": 7486,
      "##ening": 7487,
      "##chrom": 7488,
      "##quently": 7489,
      "pfn": 7490,
      "cgas": 7491,
      "##lact": 7492,
      "disen": 7493,
      "strain": 7494,
      "classical": 7495,
      "cortex": 7496,
      "cobalt": 7497,
      "among": 7498,
      "memory": 7499,
      "diseng": 7500,
      "pel": 7501,
      "tatb": 7502,
      "accelerates": 7503,
      "##ochemical": 7504,
      "resemble": 7505,
      "fh": 7506,
      "exo": 7507,
      "moab": 7508,
      "##reductase": 7509,
      "cenp": 7510,
      "synapse": 7511,
      "ric": 7512,
      "##eption": 7513,
      "##caa": 7514,
      "##arian": 7515,
      "utilizing": 7516,
      "lpxk": 7517,
      "frizz": 7518,
      "frizzled": 7519,
      "60": 7520,
      "dk": 7521,
      "##enoyl": 7522,
      "ftsk": 7523,
      "replacing": 7524,
      "operates": 7525,
      "##96": 7526,
      "##icillin": 7527,
      "superfam": 7528,
      "pgm": 7529,
      "dissociates": 7530,
      "cosubst": 7531,
      "rps": 7532,
      "t4": 7533,
      "##terpenoid": 7534,
      "demethyl": 7535,
      "atpsynth": 7536,
      "atcase": 7537,
      "polymerases": 7538,
      "polysomes": 7539,
      "f420": 7540,
      "arge": 7541,
      "heparin": 7542,
      "fiber": 7543,
      "methylthioribose": 7544,
      "unusual": 7545,
      "glurs": 7546,
      "##poly": 7547,
      "##fo": 7548,
      "##ff": 7549,
      "trm1": 7550,
      "dehydroshikimate": 7551,
      "tsae": 7552,
      "##87": 7553,
      "##tibility": 7554,
      "adducin": 7555,
      "boxes": 7556,
      "ara4": 7557,
      "##yrimidine": 7558,
      "argrs": 7559,
      "glycoprot": 7560,
      "galnac": 7561,
      "particularly": 7562,
      "es4": 7563,
      "donated": 7564,
      "ciliogenesis": 7565,
      "myristoyl": 7566,
      "##ination": 7567,
      "conjunction": 7568,
      "rrn": 7569,
      "t3ss": 7570,
      "bmal1": 7571,
      "ten": 7572,
      "##adec": 7573,
      "amination": 7574,
      "ksga": 7575,
      "t1b": 7576,
      "respect": 7577,
      "##yric": 7578,
      "fertility": 7579,
      "deaden": 7580,
      "dps": 7581,
      "mmm": 7582,
      "aminoacylated": 7583,
      "##atches": 7584,
      "cascades": 7585,
      "corepressor": 7586,
      "programmed": 7587,
      "nedd": 7588,
      "20kda": 7589,
      "queuosine": 7590,
      "centriole": 7591,
      "##ck": 7592,
      "trmu": 7593,
      "psab": 7594,
      "contained": 7595,
      "tim44": 7596,
      "extrud": 7597,
      "chlr": 7598,
      "cheb": 7599,
      "dark": 7600,
      "ccacca": 7601,
      "##osing": 7602,
      "sfam": 7603,
      "##ipid": 7604,
      "adometdc": 7605,
      "map2": 7606,
      "olfactory": 7607,
      "##iste": 7608,
      "##ococc": 7609,
      "glycotrans": 7610,
      "posterior": 7611,
      "female": 7612,
      "ketoglutarate": 7613,
      "##hexamers": 7614,
      "laminin": 7615,
      "ygg": 7616,
      "pp2c": 7617,
      "autophosphor": 7618,
      "equil": 7619,
      "lumenal": 7620,
      "septation": 7621,
      "photores": 7622,
      "latter": 7623,
      "specification": 7624,
      "##pyruvate": 7625,
      "dcs": 7626,
      "monooxygenases": 7627,
      "arach": 7628,
      "msrb": 7629,
      "ecfa": 7630,
      "3b": 7631,
      "mr": 7632,
      "##ists": 7633,
      "stom": 7634,
      "adaptor": 7635,
      "eventually": 7636,
      "kaic": 7637,
      "mmm1": 7638,
      "##titive": 7639,
      "proc": 7640,
      "pyridine": 7641,
      "##udin": 7642,
      "scis": 7643,
      "ketop": 7644,
      "mixture": 7645,
      "##alin": 7646,
      "tsab": 7647,
      "aon": 7648,
      "mend": 7649,
      "contractile": 7650,
      "dism": 7651,
      "##iating": 7652,
      "##actin": 7653,
      "##chol": 7654,
      "msrp": 7655,
      "stat1": 7656,
      "natri": 7657,
      "##ume": 7658,
      "##teb": 7659,
      "pou": 7660,
      "ftsj": 7661,
      "ses": 7662,
      "prm": 7663,
      "marked": 7664,
      "##ama": 7665,
      "##mease": 7666,
      "monop": 7667,
      "cardiolipin": 7668,
      "harves": 7669,
      "immobilization": 7670,
      "##ora": 7671,
      "lever": 7672,
      "polya": 7673,
      "sulfide": 7674,
      "##ronectin": 7675,
      "cbp": 7676,
      "##ona": 7677,
      "ligation": 7678,
      "reduct": 7679,
      "chance": 7680,
      "mray": 7681,
      "decoase": 7682,
      "passage": 7683,
      "socs": 7684,
      "gg": 7685,
      "##pens": 7686,
      "cychydrolase": 7687,
      "excitatory": 7688,
      "esterification": 7689,
      "freed": 7690,
      "digests": 7691,
      "progressing": 7692,
      "##apping": 7693,
      "hematopoietic": 7694,
      "##mence": 7695,
      "pror": 7696,
      "recommence": 7697,
      "apobec": 7698,
      "disengaged": 7699,
      "ether": 7700,
      "##lamino": 7701,
      "monocytes": 7702,
      "hydroxybenzoate": 7703,
      "gcst": 7704,
      "cilium": 7705,
      "ribitylamino": 7706,
      "aroc": 7707,
      "##b3": 7708,
      "rotate": 7709,
      "##osines": 7710,
      "inactivates": 7711,
      "rearranged": 7712,
      "ureohydrolase": 7713,
      "##ulate": 7714,
      "glmm": 7715,
      "abcg": 7716,
      "hydr": 7717,
      "homohexamers": 7718,
      "motions": 7719,
      "cosubstrate": 7720,
      "##ov": 7721,
      "plasm": 7722,
      "bacterio": 7723,
      "atg5": 7724,
      "integrins": 7725,
      "transposable": 7726,
      "##ulosonate": 7727,
      "harvesting": 7728,
      "pole": 7729,
      "##ximi": 7730,
      "##osidase": 7731,
      "unlike": 7732,
      "transcr": 7733,
      "transferring": 7734,
      "metalprtase": 7735,
      "rafts": 7736,
      "fpo": 7737,
      "pores": 7738,
      "rule": 7739,
      "##ue": 7740,
      "ribazole": 7741,
      "dnas": 7742,
      "bring": 7743,
      "staphyl": 7744,
      "##ptosis": 7745,
      "hprk": 7746,
      "dopamine": 7747,
      "favors": 7748,
      "gland": 7749,
      "##are": 7750,
      "aldo": 7751,
      "phagocytosis": 7752,
      "adren": 7753,
      "bir": 7754,
      "abnor": 7755,
      "pp2a": 7756,
      "enolpyruvylshikimate": 7757,
      "sialidase": 7758,
      "detach": 7759,
      "abnormal": 7760,
      "ti": 7761,
      "endoc": 7762,
      "disrupting": 7763,
      "dpcoa": 7764,
      "sphingomy": 7765,
      "ctnnb1": 7766,
      "compared": 7767,
      "lock": 7768,
      "pant": 7769,
      "##kr": 7770,
      "##proline": 7771,
      "metalloprotease": 7772,
      "##na1": 7773,
      "adenosines": 7774,
      "acylcoa": 7775,
      "lens": 7776,
      "##lus": 7777,
      "diaa": 7778,
      "csub": 7779,
      "axonal": 7780,
      "bcaa": 7781,
      "ww": 7782,
      "nucleolar": 7783,
      "encapsulates": 7784,
      "gk": 7785,
      "##erides": 7786,
      "psbl": 7787,
      "psbc": 7788,
      "eif4e": 7789,
      "photorespi": 7790,
      "brad": 7791,
      "opsin": 7792,
      "acylation": 7793,
      "heterochrom": 7794,
      "resistant": 7795,
      "yqey": 7796,
      "dicarb": 7797,
      "flagella": 7798,
      "arachid": 7799,
      "jun": 7800,
      "##als": 7801,
      "csd": 7802,
      "secf": 7803,
      "indic": 7804,
      "smr": 7805,
      "epithelium": 7806,
      "cystatin": 7807,
      "##ency": 7808,
      "coad": 7809,
      "fam1": 7810,
      "carboxylesterase": 7811,
      "conve": 7812,
      "##psi": 7813,
      "##dem": 7814,
      "superf": 7815,
      "cfr": 7816,
      "chloro": 7817,
      "osteoc": 7818,
      "germination": 7819,
      "tran": 7820,
      "dimease": 7821,
      "states": 7822,
      "c1a": 7823,
      "suppressing": 7824,
      "##olone": 7825,
      "diketo": 7826,
      "guidance": 7827,
      "dhha1": 7828,
      "b30": 7829,
      "piv": 7830,
      "recbc": 7831,
      "thrombin": 7832,
      "meriste": 7833,
      "##ising": 7834,
      "nrd": 7835,
      "symport": 7836,
      "presentation": 7837,
      "tfiid": 7838,
      "amidotrase": 7839,
      "itgb3": 7840,
      "kup": 7841,
      "ndu": 7842,
      "pterin": 7843,
      "r2": 7844,
      "glna": 7845,
      "mating": 7846,
      "isoaspart": 7847,
      "organs": 7848,
      "isoaspartyl": 7849,
      "rx": 7850,
      "alph": 7851,
      "selectivity": 7852,
      "thiaminep": 7853,
      "lolb": 7854,
      "thiocarboxylate": 7855,
      "nep": 7856,
      "##opeptide": 7857,
      "20kd": 7858,
      "fmrf": 7859,
      "benzoquinol": 7860,
      "attacks": 7861,
      "six": 7862,
      "ultimate": 7863,
      "##dex": 7864,
      "kinetochores": 7865,
      "unclear": 7866,
      "amide": 7867,
      "opera": 7868,
      "##ferred": 7869,
      "asprs": 7870,
      "##modified": 7871,
      "1915": 7872,
      "fission": 7873,
      "excretion": 7874,
      "r4": 7875,
      "##oate": 7876,
      "trich": 7877,
      "algh": 7878,
      "tandem": 7879,
      "##ylar": 7880,
      "##3b": 7881,
      "##opyran": 7882,
      "dimethylase": 7883,
      "progenitor": 7884,
      "##wi": 7885,
      "misappropri": 7886,
      "embryo": 7887,
      "##antoate": 7888,
      "misappropriation": 7889,
      "cep": 7890,
      "##gically": 7891,
      "##aredoxin": 7892,
      "acnase": 7893,
      "aste": 7894,
      "hydroxylated": 7895,
      "accd": 7896,
      "orthopox": 7897,
      "gprotein": 7898,
      "energically": 7899,
      "locus": 7900,
      "##pa1": 7901,
      "polarized": 7902,
      "costly": 7903,
      "cold": 7904,
      "alternatively": 7905,
      "still": 7906,
      "nucleation": 7907,
      "nh3": 7908,
      "epimerization": 7909,
      "tils": 7910,
      "##xn": 7911,
      "##ocor": 7912,
      "helper": 7913,
      "viability": 7914,
      "heml": 7915,
      "poxvirus": 7916,
      "senes": 7917,
      "##ophagy": 7918,
      "##esters": 7919,
      "stri": 7920,
      "dhs": 7921,
      "dhyd": 7922,
      "##cov": 7923,
      "##oacetyl": 7924,
      "sia": 7925,
      "##rem": 7926,
      "##qui": 7927,
      "formamido": 7928,
      "ppat": 7929,
      "calp": 7930,
      "rsmg": 7931,
      "moca": 7932,
      "transposase": 7933,
      "strains": 7934,
      "prostaglandin": 7935,
      "gsh": 7936,
      "mil": 7937,
      "pank": 7938,
      "demethylase": 7939,
      "gfo": 7940,
      "autoinduc": 7941,
      "ketopantoate": 7942,
      "##ness": 7943,
      "asmbl": 7944,
      "trpf": 7945,
      "status": 7946,
      "kdsa": 7947,
      "dhydase": 7948,
      "##phen": 7949,
      "trnk": 7950,
      "##top": 7951,
      "recons": 7952,
      "##psynth": 7953,
      "oxidizes": 7954,
      "gluald": 7955,
      "proteoglycans": 7956,
      "lbh": 7957,
      "pest": 7958,
      "lik": 7959,
      "acoase": 7960,
      "adf": 7961,
      "disaccharide": 7962,
      "cyclohex": 7963,
      "display": 7964,
      "orient": 7965,
      "##glyceryl": 7966,
      "enterob": 7967,
      "bradykinin": 7968,
      "recn": 7969,
      "polyc": 7970,
      "arra": 7971,
      "enabling": 7972,
      "lute": 7973,
      "xtp": 7974,
      "##l3": 7975,
      "##lastic": 7976,
      "psbd": 7977,
      "quick": 7978,
      "boxa": 7979,
      "uref": 7980,
      "phosphorolytic": 7981,
      "substitution": 7982,
      "##osensor": 7983,
      "stereospecifically": 7984,
      "oxopentanoate": 7985,
      "reconstitu": 7986,
      "ez": 7987,
      "s9": 7988,
      "##icans": 7989,
      "##ocys": 7990,
      "##300": 7991,
      "hybridization": 7992,
      "phosphoglucosamine": 7993,
      "pat": 7994,
      "dnag": 7995,
      "poin": 7996,
      "clp1": 7997,
      "take": 7998,
      "localizes": 7999,
      "indirect": 8000,
      "photorespiration": 8001,
      "##iesis": 8002,
      "coated": 8003,
      "##oses": 8004,
      "inclusion": 8005,
      "pax": 8006,
      "derm": 8007,
      "hypoxia": 8008,
      "amo": 8009,
      "acetoacetyl": 8010,
      "agmat": 8011,
      "mnmc": 8012,
      "mannac": 8013,
      "camk": 8014,
      "cyanob": 8015,
      "cmg": 8016,
      "pac": 8017,
      "adt": 8018,
      "##obiotic": 8019,
      "significantly": 8020,
      "##ulating": 8021,
      "##porter": 8022,
      "cpn10": 8023,
      "thromb": 8024,
      "slx": 8025,
      "##rator": 8026,
      "defin": 8027,
      "weight": 8028,
      "##pensable": 8029,
      "agent": 8030,
      "cyclases": 8031,
      "lpxd": 8032,
      "expansin": 8033,
      "neutrophil": 8034,
      "sesqui": 8035,
      "wal": 8036,
      "##thion": 8037,
      "##inetic": 8038,
      "##stituted": 8039,
      "pcc": 8040,
      "##rk": 8041,
      "chaprn": 8042,
      "respiration": 8043,
      "sister": 8044,
      "phenol": 8045,
      "chaprnonin": 8046,
      "##lag": 8047,
      "##ellar": 8048,
      "phom": 8049,
      "mevalonate": 8050,
      "acetyltransf": 8051,
      "interfering": 8052,
      "h4k": 8053,
      "1st": 8054,
      "gnt": 8055,
      "redundant": 8056,
      "paramy": 8057,
      "dsrbd": 8058,
      "mth": 8059,
      "##tious": 8060,
      "##genation": 8061,
      "##itect": 8062,
      "albicans": 8063,
      "store": 8064,
      "mate": 8065,
      "rex": 8066,
      "glucokinase": 8067,
      "lacto": 8068,
      "somatic": 8069,
      "2503": 8070,
      "cia": 8071,
      "trisphosphate": 8072,
      "##deco": 8073,
      "ompdeco": 8074,
      "ompdecoase": 8075,
      "lrp": 8076,
      "conf": 8077,
      "##ub1": 8078,
      "##aga": 8079,
      "sulfotransferase": 8080,
      "prenylation": 8081,
      "gsp": 8082,
      "##2s": 8083,
      "##ylak": 8084,
      "stk": 8085,
      "##mides": 8086,
      "integrator": 8087,
      "oligomer": 8088,
      "potentially": 8089,
      "nsp1": 8090,
      "darp": 8091,
      "lucif": 8092,
      "ear": 8093,
      "latches": 8094,
      "##85": 8095,
      "##84": 8096,
      "##vas": 8097,
      "thylak": 8098,
      "tract": 8099,
      "##gregating": 8100,
      "##llum": 8101,
      "xenobiotic": 8102,
      "depolarization": 8103,
      "##rysone": 8104,
      "ggg": 8105,
      "lyr": 8106,
      "oocyte": 8107,
      "##racin": 8108,
      "rpph": 8109,
      "cooperation": 8110,
      "kv1": 8111,
      "sole": 8112,
      "##ful": 8113,
      "whe": 8114,
      "upf029": 8115,
      "peripla": 8116,
      "arabino": 8117,
      "tgfb": 8118,
      "imported": 8119,
      "##otal": 8120,
      "throughout": 8121,
      "lipoylated": 8122,
      "homomeric": 8123,
      "extre": 8124,
      "mcp": 8125,
      "sucrose": 8126,
      "kdpb": 8127,
      "vwfa": 8128,
      "ephrin": 8129,
      "hk": 8130,
      "##gu": 8131,
      "susc": 8132,
      "##oreceptor": 8133,
      "polc": 8134,
      "rotation": 8135,
      "##globulin": 8136,
      "injection": 8137,
      "mmatch": 8138,
      "sulphur": 8139,
      "lptd": 8140,
      "egg": 8141,
      "##gly": 8142,
      "##itp": 8143,
      "##itracin": 8144,
      "bacitracin": 8145,
      "disag": 8146,
      "##ivity": 8147,
      "cysd": 8148,
      "cobra": 8149,
      "embed": 8150,
      "gemin": 8151,
      "starter": 8152,
      "pivotal": 8153,
      "autoinducer": 8154,
      "opr": 8155,
      "##md": 8156,
      "##axin": 8157,
      "atcc": 8158,
      "dihydroguanosine": 8159,
      "fucu": 8160,
      "octanoylated": 8161,
      "dahp": 8162,
      "##ocyst": 8163,
      "pathogenesis": 8164,
      "chromatid": 8165,
      "phosphoglucose": 8166,
      "synergistic": 8167,
      "dismutase": 8168,
      "pollen": 8169,
      "scav": 8170,
      "plug": 8171,
      "progeny": 8172,
      "convey": 8173,
      "nbp": 8174,
      "##ramin": 8175,
      "ubib": 8176,
      "pepb": 8177,
      "germline": 8178,
      "quickly": 8179,
      "2a": 8180,
      "processivity": 8181,
      "hyal": 8182,
      "cxcl": 8183,
      "communic": 8184,
      "diphosphates": 8185,
      "plasmin": 8186,
      "ergosterol": 8187,
      "pkc": 8188,
      "infectious": 8189,
      "pfka": 8190,
      "ribityllum": 8191,
      "ribityllumazine": 8192,
      "ham1": 8193,
      "##jq": 8194,
      "##olig": 8195,
      "##ocon": 8196,
      "strfase": 8197,
      "##aba": 8198,
      "##ochrome": 8199,
      "maternal": 8200,
      "holoenzyme": 8201,
      "encapsidation": 8202,
      "m24b": 8203,
      "hmkb": 8204,
      "asfivirus": 8205,
      "suscep": 8206,
      "ctu": 8207,
      "v0": 8208,
      "gli": 8209,
      "decapping": 8210,
      "malto": 8211,
      "pdgf": 8212,
      "##omyosin": 8213,
      "chitinase": 8214,
      "phosphosulfate": 8215,
      "snz": 8216,
      "ndh1": 8217,
      "porphyrin": 8218,
      "olfact": 8219,
      "3ipm": 8220,
      "##vi": 8221,
      "##aryo": 8222,
      "erf1": 8223,
      "paired": 8224,
      "apoprotein": 8225,
      "cvt": 8226,
      "len": 8227,
      "uga": 8228,
      "##hmur": 8229,
      "##g2": 8230,
      "##osamin": 8231,
      "anhmur": 8232,
      "endonucleolytic": 8233,
      "viro": 8234,
      "handed": 8235,
      "anchoring": 8236,
      "azo": 8237,
      "kdpc": 8238,
      "anhmurnac": 8239,
      "content": 8240,
      "metalthion": 8241,
      "palmitoyltransferase": 8242,
      "hisp": 8243,
      "pcd": 8244,
      "m1pi": 8245,
      "conjugate": 8246,
      "antibiotics": 8247,
      "dgtpase": 8248,
      "apt": 8249,
      "m6a": 8250,
      "una": 8251,
      "zy": 8252,
      "##79": 8253,
      "##genomic": 8254,
      "caf": 8255,
      "##cyc": 8256,
      "conte": 8257,
      "atroch": 8258,
      "poor": 8259,
      "lymphocyte": 8260,
      "##quisition": 8261,
      "tusa": 8262,
      "fimbrial": 8263,
      "senescence": 8264,
      "atrochrysone": 8265,
      "tir": 8266,
      "##ulated": 8267,
      "methio": 8268,
      "inducible": 8269,
      "hydroxyacid": 8270,
      "lactone": 8271,
      "ccdc": 8272,
      "tripoly": 8273,
      "hippocampal": 8274,
      "embedded": 8275,
      "##dhyd": 8276,
      "functioning": 8277,
      "dikinase": 8278,
      "glutaredoxin": 8279,
      "##161": 8280,
      "ipmdhyd": 8281,
      "aconitasea": 8282,
      "disaggregating": 8283,
      "tripolyphosphate": 8284,
      "ipmdhydase": 8285,
      "acquisition": 8286,
      "##ants": 8287,
      "preinitiation": 8288,
      "incises": 8289,
      "##veilla": 8290,
      "metalloenzyme": 8291,
      "nitros": 8292,
      "spher": 8293,
      "creatinase": 8294,
      "context": 8295,
      "##veillance": 8296,
      "mitogen": 8297,
      "upf028": 8298,
      "preferred": 8299,
      "capacity": 8300,
      "##tebrate": 8301,
      "gida": 8302,
      "##ap2": 8303,
      "reductant": 8304,
      "erk1": 8305,
      "dad": 8306,
      "gar": 8307,
      "namn": 8308,
      "##tivir": 8309,
      "sprt": 8310,
      "nonrib": 8311,
      "surfac": 8312,
      "gmps": 8313,
      "h3k9": 8314,
      "heterochromatin": 8315,
      "ku": 8316,
      "proximi": 8317,
      "exterior": 8318,
      "ppm": 8319,
      "##orsal": 8320,
      "dihydroptero": 8321,
      "reconstituted": 8322,
      "proximity": 8323,
      "iaa": 8324,
      "##tine": 8325,
      "architect": 8326,
      "slt": 8327,
      "a1518": 8328,
      "a1519": 8329,
      "relaxed": 8330,
      "deletion": 8331,
      "map3k": 8332,
      "thylakoid": 8333,
      "ddcd": 8334,
      "##actic": 8335,
      "dmrl": 8336,
      "constitutive": 8337,
      "cxcr": 8338,
      "##osterone": 8339,
      "zipa": 8340,
      "dihydropteroate": 8341,
      "rlu": 8342,
      "yh": 8343,
      "aminoimidazole": 8344,
      "rhomb": 8345,
      "integrated": 8346,
      "edited": 8347,
      "##1915": 8348,
      "rubredoxin": 8349,
      "sources": 8350,
      "upf0173": 8351,
      "blade": 8352,
      "rlua": 8353,
      "##ctic": 8354,
      "ispf": 8355,
      "deam": 8356,
      "##ulase": 8357,
      "mntp": 8358,
      "##rsf": 8359,
      "succinyltrfase": 8360,
      "cyd": 8361,
      "dre": 8362,
      "##umb": 8363,
      "tuberc": 8364,
      "macb": 8365,
      "telomerase": 8366,
      "##lb": 8367,
      "##nf": 8368,
      "total": 8369,
      "chrn": 8370,
      "triglyc": 8371,
      "##cytidine": 8372,
      "nr1": 8373,
      "catabolic": 8374,
      "##comes": 8375,
      "##np": 8376,
      "##wd": 8377,
      "##ithiol": 8378,
      "divalent": 8379,
      "##ca1": 8380,
      "maltose": 8381,
      "cbamoyl": 8382,
      "fibers": 8383,
      "##atio": 8384,
      "m3psi": 8385,
      "mesenchymal": 8386,
      "cbamoylp": 8387,
      "m3psi1915": 8388,
      "noc": 8389,
      "##76": 8390,
      "##icos": 8391,
      "##ylacet": 8392,
      "lignin": 8393,
      "poles": 8394,
      "intramembrane": 8395,
      "tfiib": 8396,
      "exerts": 8397,
      "fibril": 8398,
      "sah": 8399,
      "ligases": 8400,
      "cations": 8401,
      "rotor": 8402,
      "m7g46": 8403,
      "methiolase": 8404,
      "ejc": 8405,
      "gut": 8406,
      "whth": 8407,
      "paral": 8408,
      "lsui": 8409,
      "depolymerization": 8410,
      "mtr": 8411,
      "situ": 8412,
      "##pyrimidine": 8413,
      "antagonist": 8414,
      "ahpc": 8415,
      "oligopeptides": 8416,
      "dorsal": 8417,
      "patch": 8418,
      "sly": 8419,
      "intact": 8420,
      "ferrous": 8421,
      "##anthine": 8422,
      "intestine": 8423,
      "autophagosomes": 8424,
      "pathogenicity": 8425,
      "arth": 8426,
      "4pyrrole": 8427,
      "disruption": 8428,
      "##tle": 8429,
      "cs1": 8430,
      "cyclopenten": 8431,
      "##ively": 8432,
      "oxoisovalerate": 8433,
      "encoding": 8434,
      "pyrimid": 8435,
      "hydroxymethylpyrimidine": 8436,
      "reactivity": 8437,
      "aim": 8438,
      "lab": 8439,
      "lipoprot": 8440,
      "hydanto": 8441,
      "flagellum": 8442,
      "segments": 8443,
      "gna": 8444,
      "mav": 8445,
      "rqc": 8446,
      "##73": 8447,
      "##pol": 8448,
      "chi": 8449,
      "##tora": 8450,
      "atr": 8451,
      "pribosyl": 8452,
      "introduced": 8453,
      "unfolds": 8454,
      "##ade": 8455,
      "unsub": 8456,
      "prfc": 8457,
      "dois": 8458,
      "spermine": 8459,
      "killer": 8460,
      "cuticle": 8461,
      "nbp35": 8462,
      "unsubstituted": 8463,
      "ybd": 8464,
      "##men": 8465,
      "##ops": 8466,
      "arp2": 8467,
      "##ukinase": 8468,
      "surveillance": 8469,
      "participating": 8470,
      "triosep": 8471,
      "phycobil": 8472,
      "hepatocytes": 8473,
      "swivel": 8474,
      "spherical": 8475,
      "nonribosomal": 8476,
      "##ergen": 8477,
      "appro": 8478,
      "uridyltransferase": 8479,
      "pcna": 8480,
      "osc": 8481,
      "prenylated": 8482,
      "dox": 8483,
      "##ella": 8484,
      "prola": 8485,
      "glycans": 8486,
      "galactokinase": 8487,
      "lymphoid": 8488,
      "bats": 8489,
      "##c4": 8490,
      "##gd": 8491,
      "##206": 8492,
      "sideroph": 8493,
      "rhoa": 8494,
      "asparaginase": 8495,
      "propagation": 8496,
      "bul": 8497,
      "##ogly": 8498,
      "pyrr": 8499,
      "rapa": 8500,
      "polarization": 8501,
      "rud": 8502,
      "##rich": 8503,
      "##n2": 8504,
      "asa": 8505,
      "##ulosis": 8506,
      "##polar": 8507,
      "flowering": 8508,
      "tfiih": 8509,
      "transported": 8510,
      "pyruv": 8511,
      "protoporphyrin": 8512,
      "separates": 8513,
      "72": 8514,
      "deple": 8515,
      "retinoic": 8516,
      "##oreg": 8517,
      "elongating": 8518,
      "photochemical": 8519,
      "chloroplasts": 8520,
      "chemotactic": 8521,
      "eif2ak": 8522,
      "ok": 8523,
      "##e1": 8524,
      "cellulase": 8525,
      "discre": 8526,
      "purk": 8527,
      "lyas": 8528,
      "nhaa": 8529,
      "mirnas": 8530,
      "mavs": 8531,
      "rudment": 8532,
      "##ximate": 8533,
      "##anc": 8534,
      "entities": 8535,
      "##aturation": 8536,
      "radicals": 8537,
      "heterodimeric": 8538,
      "mukb": 8539,
      "luciferase": 8540,
      "discrete": 8541,
      "mh": 8542,
      "##haps": 8543,
      "dehy": 8544,
      "serot": 8545,
      "factora": 8546,
      "perhaps": 8547,
      "guanylyl": 8548,
      "isomerizes": 8549,
      "sphingomyelin": 8550,
      "pointed": 8551,
      "a4": 8552,
      "m10": 8553,
      "coreceptor": 8554,
      "##arbonate": 8555,
      "snrp": 8556,
      "acglukinase": 8557,
      "lep": 8558,
      "##lars": 8559,
      "oxred": 8560,
      "mouse": 8561,
      "cligase": 8562,
      "bioab": 8563,
      "gator": 8564,
      "##ners": 8565,
      "##state": 8566,
      "partners": 8567,
      "tung": 8568,
      "larval": 8569,
      "tuberculosis": 8570,
      "cyl": 8571,
      "having": 8572,
      "##tit": 8573,
      "##thione": 8574,
      "cyay": 8575,
      "methylthiop": 8576,
      "azoreductase": 8577,
      "cardio": 8578,
      "approximate": 8579,
      "gsa": 8580,
      "##ber": 8581,
      "##a3": 8582,
      "##qh2": 8583,
      "##mia": 8584,
      "##itine": 8585,
      "asso": 8586,
      "sea": 8587,
      "acetylates": 8588,
      "interferes": 8589,
      "sphingolipid": 8590,
      "larv": 8591,
      "bicarbonate": 8592,
      "tungstate": 8593,
      "igf": 8594,
      "abscisic": 8595,
      "arob": 8596,
      "s3p": 8597,
      "saga": 8598,
      "tbc": 8599,
      "##s2": 8600,
      "anhydrase": 8601,
      "dnapol": 8602,
      "dhase": 8603,
      "chaini": 8604,
      "changing": 8605,
      "2fe2s": 8606,
      "mdm12": 8607,
      "mutagenic": 8608,
      "hi": 8609,
      "##ln": 8610,
      "mitorib": 8611,
      "creb": 8612,
      "hypermodified": 8613,
      "larg": 8614,
      "functionally": 8615,
      "pddex": 8616,
      "hydra": 8617,
      "pddexk": 8618,
      "pv": 8619,
      "##78": 8620,
      "##terone": 8621,
      "erythrose": 8622,
      "nucleophile": 8623,
      "keep": 8624,
      "orthopoxvirus": 8625,
      "ditp": 8626,
      "fast": 8627,
      "gd": 8628,
      "pak": 8629,
      "##s4": 8630,
      "##orks": 8631,
      "platelets": 8632,
      "caveolin": 8633,
      "##iized": 8634,
      "##7a": 8635,
      "##sel": 8636,
      "glms": 8637,
      "stabiized": 8638,
      "dihydroxyisovalerate": 8639,
      "cody": 8640,
      "heterotri": 8641,
      "ybdk": 8642,
      "##pan": 8643,
      "cora": 8644,
      "nitrogenase": 8645,
      "drugs": 8646,
      "bcov": 8647,
      "rb1": 8648,
      "trio": 8649,
      "moase": 8650,
      "##ometh": 8651,
      "pribglycinamide": 8652,
      "dihydroxya": 8653,
      "ssrna": 8654,
      "fli": 8655,
      "asparagine": 8656,
      "portion": 8657,
      "pain": 8658,
      "##m3": 8659,
      "limb": 8660,
      "co2": 8661,
      "quan": 8662,
      "##oining": 8663,
      "nqra": 8664,
      "coagulation": 8665,
      "##aryotes": 8666,
      "phycobilisome": 8667,
      "mef2": 8668,
      "##ulus": 8669,
      "opens": 8670,
      "farnesyltransferase": 8671,
      "##inosine": 8672,
      "nef": 8673,
      "panb": 8674,
      "palind": 8675,
      "transpept": 8676,
      "retinol": 8677,
      "casparian": 8678,
      "cab": 8679,
      "gating": 8680,
      "oq": 8681,
      "##oviridae": 8682,
      "##elle": 8683,
      "subcellular": 8684,
      "##ressin": 8685,
      "myel": 8686,
      "##carbonate": 8687,
      "telomeric": 8688,
      "available": 8689,
      "cres": 8690,
      "ratio": 8691,
      "##orc": 8692,
      "prone": 8693,
      "neurogenesis": 8694,
      "bra": 8695,
      "cns": 8696,
      "##uosine": 8697,
      "protective": 8698,
      "fertil": 8699,
      "recognize": 8700,
      "mechanosens": 8701,
      "secretin": 8702,
      "thym": 8703,
      "concomitantly": 8704,
      "epoxyque": 8705,
      "thermosensor": 8706,
      "epoxyqueuosine": 8707,
      "##ulator": 8708,
      "invag": 8709,
      "fibronectin": 8710,
      "depends": 8711,
      "egress": 8712,
      "enfor": 8713,
      "##ulatory": 8714,
      "nucleol": 8715,
      "lipolytic": 8716,
      "##taa": 8717,
      "hydrogencarbonate": 8718,
      "recovery": 8719,
      "zeta": 8720,
      "##ception": 8721,
      "pqqe": 8722,
      "cros": 8723,
      "transcriptionally": 8724,
      "deoxyuridine": 8725,
      "gives": 8726,
      "lentivir": 8727,
      "nase": 8728,
      "byp": 8729,
      "eef": 8730,
      "fet": 8731,
      "##opsin": 8732,
      "##phage": 8733,
      "diss": 8734,
      "glucans": 8735,
      "pci": 8736,
      "citr": 8737,
      "fha": 8738,
      "fe2": 8739,
      "glnd": 8740,
      "##ribose": 8741,
      "peroxisome": 8742,
      "competence": 8743,
      "phosphorylribose": 8744,
      "tracrrna": 8745,
      "3c": 8746,
      "kinetic": 8747,
      "##ctant": 8748,
      "##dpr": 8749,
      "pp1": 8750,
      "chaperones": 8751,
      "hspa": 8752,
      "pccb": 8753,
      "rhomboid": 8754,
      "1b": 8755,
      "ld": 8756,
      "##4b": 8757,
      "##galact": 8758,
      "divisome": 8759,
      "allergen": 8760,
      "shifts": 8761,
      "synergistically": 8762,
      "rdna": 8763,
      "##fg": 8764,
      "insp": 8765,
      "##ket": 8766,
      "und": 8767,
      "##neum": 8768,
      "polymerizing": 8769,
      "dipeptides": 8770,
      "catabolite": 8771,
      "upf0178": 8772,
      "approximately": 8773,
      "l25": 8774,
      "nhe": 8775,
      "sv": 8776,
      "dhdpr": 8777,
      "##ruction": 8778,
      "pherom": 8779,
      "ftsq": 8780,
      "deoxyadenosine": 8781,
      "propeptide": 8782,
      "pex5": 8783,
      "kaib": 8784,
      "detecting": 8785,
      "##ornithine": 8786,
      "ribosylation": 8787,
      "din": 8788,
      "sed": 8789,
      "##onanoate": 8790,
      "##arging": 8791,
      "cdg": 8792,
      "heterotetra": 8793,
      "glucosamine6p": 8794,
      "limited": 8795,
      "spt16": 8796,
      "architecture": 8797,
      "becomes": 8798,
      "rhab": 8799,
      "ho5u": 8800,
      "cmgc": 8801,
      "snac": 8802,
      "##ogalact": 8803,
      "hydroxyuridine": 8804,
      "cbc": 8805,
      "covinyl": 8806,
      "tested": 8807,
      "iles": 8808,
      "kef": 8809,
      "##osi": 8810,
      "adher": 8811,
      "##toxins": 8812,
      "selo": 8813,
      "rhythms": 8814,
      "master": 8815,
      "mycothiol": 8816,
      "papillomaviridae": 8817,
      "little": 8818,
      "gggp": 8819,
      "##95": 8820,
      "##nabin": 8821,
      "dsre": 8822,
      "##dah": 8823,
      "mfp": 8824,
      "phosphopent": 8825,
      "angio": 8826,
      "ventral": 8827,
      "##loid": 8828,
      "protohaem": 8829,
      "pantoyl": 8830,
      "farnesyltrfase": 8831,
      "mukf": 8832,
      "##gef": 8833,
      "nucleosomal": 8834,
      "igpd": 8835,
      "slight": 8836,
      "imidazoleglycerolp": 8837,
      "cel": 8838,
      "cmo": 8839,
      "od": 8840,
      "##etin": 8841,
      "##ipo": 8842,
      "##ugin": 8843,
      "carbonyl": 8844,
      "fraction": 8845,
      "huti": 8846,
      "orientation": 8847,
      "phosphopentomutase": 8848,
      "respond": 8849,
      "homocitrate": 8850,
      "axons": 8851,
      "##igned": 8852,
      "mre11": 8853,
      "autophosphorylation": 8854,
      "flux": 8855,
      "##erative": 8856,
      "oxidored": 8857,
      "decarb": 8858,
      "nitroreductase": 8859,
      "tumour": 8860,
      "derivative": 8861,
      "cutting": 8862,
      "##otyros": 8863,
      "drib": 8864,
      "ngf": 8865,
      "deob": 8866,
      "perception": 8867,
      "dihydrofolate": 8868,
      "nmd": 8869,
      "imidazoleglycer": 8870,
      "oxoglu": 8871,
      "heptulosonate": 8872,
      "transforming": 8873,
      "##chlorin": 8874,
      "imidazoleglycerp": 8875,
      "emod": 8876,
      "##arent": 8877,
      "glne": 8878,
      "carried": 8879,
      "ccl": 8880,
      "exclus": 8881,
      "pcg": 8882,
      "##irality": 8883,
      "weakly": 8884,
      "hemocyanin": 8885,
      "extrudes": 8886,
      "enforce": 8887,
      "emodin": 8888,
      "alars": 8889,
      "c8": 8890,
      "purs": 8891,
      "t1a": 8892,
      "##teration": 8893,
      "##roin": 8894,
      "subgenomic": 8895,
      "phosphono": 8896,
      "##usine": 8897,
      "claudin": 8898,
      "araa": 8899,
      "ade2": 8900,
      "adenosylcobalamin": 8901,
      "hw": 8902,
      "##molecular": 8903,
      "##romic": 8904,
      "trpa": 8905,
      "nadk": 8906,
      "buty": 8907,
      "pi4": 8908,
      "apparent": 8909,
      "rectif": 8910,
      "upf012": 8911,
      "##tilin": 8912,
      "accepting": 8913,
      "aerugin": 8914,
      "xylan": 8915,
      "hst": 8916,
      "thp": 8917,
      "##ensed": 8918,
      "asper": 8919,
      "ppnk": 8920,
      "il1b": 8921,
      "remove": 8922,
      "derep": 8923,
      "##552": 8924,
      "ureido": 8925,
      "hemagglutinin": 8926,
      "influences": 8927,
      "m4": 8928,
      "prp": 8929,
      "tubular": 8930,
      "psbt": 8931,
      "fung": 8932,
      "indoleglycerol": 8933,
      "electrophilic": 8934,
      "daa": 8935,
      "p6": 8936,
      "##acb": 8937,
      "diet": 8938,
      "psbb": 8939,
      "mdm2": 8940,
      "itgav": 8941,
      "ysxc": 8942,
      "aeruginosa": 8943,
      "##ethanolamine": 8944,
      "##ental": 8945,
      "deacyl": 8946,
      "carbonic": 8947,
      "cbid": 8948,
      "mtfrase": 8949,
      "deacetyl": 8950,
      "consecu": 8951,
      "49kda": 8952,
      "straight": 8953,
      "phosphonooxy": 8954,
      "cral": 8955,
      "rwd": 8956,
      "##2p": 8957,
      "homoch": 8958,
      "sperma": 8959,
      "utilize": 8960,
      "coase2": 8961,
      "thermo": 8962,
      "##lysine": 8963,
      "prolactin": 8964,
      "psts": 8965,
      "phosphohydroxy": 8966,
      "##arboxylase": 8967,
      "succinylglutamate": 8968,
      "##iliprotein": 8969,
      "skeleton": 8970,
      "palindromic": 8971,
      "deacyls": 8972,
      "homochirality": 8973,
      "xpo": 8974,
      "##hyp": 8975,
      "polyamines": 8976,
      "##ortal": 8977,
      "facilitated": 8978,
      "##ilane": 8979,
      "consecutive": 8980,
      "ble": 8981,
      "##asm": 8982,
      "transcarboxylase": 8983,
      "upf04": 8984,
      "oxoacid": 8985,
      "fertilization": 8986,
      "work": 8987,
      "monovalent": 8988,
      "condenses": 8989,
      "##operox": 8990,
      "exhibit": 8991,
      "potentials": 8992,
      "glutamylp": 8993,
      "possess": 8994,
      "##ocytosed": 8995,
      "e6": 8996,
      "ede": 8997,
      "lpp": 8998,
      "##iger": 8999,
      "paralysis": 9000,
      "mischarging": 9001,
      "oxoguanine": 9002,
      "guided": 9003,
      "tsp1": 9004,
      "vpr": 9005,
      "##tl": 9006,
      "##tead": 9007,
      "acyltrfase": 9008,
      "##ocation": 9009,
      "abund": 9010,
      "channeled": 9011,
      "lacd": 9012,
      "instead": 9013,
      "carboxyp": 9014,
      "pabp": 9015,
      "##ential": 9016,
      "clear": 9017,
      "glucono": 9018,
      "##rp1": 9019,
      "diacylglyceryl": 9020,
      "agonist": 9021,
      "angiotensin": 9022,
      "##ylglycinamidine": 9023,
      "prism": 9024,
      "##formylglycinamidine": 9025,
      "brk": 9026,
      "##uretic": 9027,
      "phosphoribosylformylglycinamidine": 9028,
[...]
